#include "kws_model.h"

const unsigned char kws_model[] = {32,0,0,0,84,70,76,51,0,0,0,0,20,0,32,0,28,0,24,0,20,0,16,0,12,0,0,0,8,0,4,0,20,0,0,0,28,0,0,0,136,0,0,0,224,0,0,0,120,82,0,0,136,82,0,0,180,94,0,0,3,0,0,0,1,0,0,0,4,0,0,0,122,172,255,255,12,0,0,0,28,0,0,0,56,0,0,0,15,0,0,0,115,101,114,118,105,110,103,95,100,101,102,97,117,108,116,0,1,0,0,0,4,0,0,0,148,255,255,255,17,0,0,0,4,0,0,0,7,0,0,0,100,101,110,115,101,95,49,0,1,0,0,0,4,0,0,0,94,173,255,255,4,0,0,0,12,0,0,0,99,111,110,118,50,100,95,105,110,112,117,116,0,0,0,0,2,0,0,0,52,0,0,0,4,0,0,0,220,255,255,255,20,0,0,0,4,0,0,0,19,0,0,0,67,79,78,86,69,82,83,73,79,78,95,77,69,84,65,68,65,84,65,0,8,0,12,0,8,0,4,0,8,0,0,0,19,0,0,0,4,0,0,0,19,0,0,0,109,105,110,95,114,117,110,116,105,109,101,95,118,101,114,115,105,111,110,0,21,0,0,0,148,81,0,0,140,81,0,0,124,71,0,0,100,71,0,0,44,71,0,0,28,70,0,0,204,69,0,0,60,69,0,0,236,66,0,0,220,48,0,0,204,0,0,0,196,0,0,0,188,0,0,0,180,0,0,0,172,0,0,0,164,0,0,0,156,0,0,0,148,0,0,0,140,0,0,0,108,0,0,0,4,0,0,0,46,174,255,255,4,0,0,0,88,0,0,0,12,0,0,0,8,0,14,0,8,0,4,0,8,0,0,0,16,0,0,0,40,0,0,0,0,0,6,0,8,0,4,0,6,0,0,0,4,0,0,0,1,0,0,0,234,3,0,0,0,0,10,0,16,0,12,0,8,0,4,0,10,0,0,0,2,0,0,0,2,0,0,0,4,0,0,0,6,0,0,0,50,46,49,49,46,48,0,0,146,174,255,255,4,0,0,0,16,0,0,0,50,46,52,46,48,0,0,0,0,0,0,0,0,0,0,0,56,163,255,255,60,163,255,255,64,163,255,255,68,163,255,255,72,163,255,255,76,163,255,255,80,163,255,255,84,163,255,255,206,174,255,255,4,0,0,0,0,48,0,0,33,42,58,223,18,84,170,46,231,18,207,17,16,44,224,239,40,8,211,3,8,251,89,205,230,221,179,255,238,213,251,86,76,35,251,24,232,220,175,197,67,245,41,42,48,25,234,246,241,230,27,50,75,28,45,22,181,56,191,12,208,249,5,4,11,30,217,248,210,19,173,20,42,38,12,47,60,198,10,32,232,6,205,45,19,28,203,206,15,225,218,24,12,244,31,33,215,57,31,238,24,210,214,41,43,3,18,193,222,15,45,209,210,214,240,232,39,204,49,52,52,42,58,251,233,19,24,200,50,50,214,5,212,10,52,238,221,28,54,249,55,247,46,2,228,43,26,43,234,250,22,15,10,247,41,202,50,3,210,221,21,36,218,7,56,207,39,24,216,237,215,251,224,250,37,241,50,68,8,20,60,4,14,244,15,247,5,208,0,29,54,10,72,26,0,29,21,62,234,52,23,33,46,9,81,33,13,248,49,202,16,195,255,223,30,246,63,255,212,243,230,29,203,242,15,254,242,201,207,27,187,226,38,44,17,20,214,37,45,48,43,33,15,236,240,237,192,4,242,22,249,27,234,196,252,33,19,207,221,53,30,227,22,19,60,10,25,59,58,228,18,244,237,15,252,205,49,222,229,11,34,193,37,220,48,248,255,211,212,244,205,214,234,253,53,252,223,45,191,41,255,9,202,215,206,8,51,189,34,200,209,7,250,249,51,47,12,240,230,214,56,196,66,212,224,22,30,2,251,30,46,237,10,224,52,29,208,38,204,32,184,230,205,241,214,30,233,7,6,194,239,251,56,254,251,24,35,34,27,11,19,32,226,9,226,224,55,208,33,239,251,2,9,28,207,21,30,39,2,18,237,53,221,8,201,248,18,252,212,14,24,44,212,26,248,56,14,224,243,13,246,32,213,4,41,228,236,218,196,49,13,211,245,54,200,223,205,30,225,16,16,196,38,198,255,216,44,215,212,20,48,26,16,254,29,40,37,36,245,219,49,57,7,205,9,42,204,248,194,40,209,236,7,227,4,240,33,25,9,50,46,252,39,231,5,219,204,226,8,255,42,18,236,20,25,236,30,238,252,255,232,214,222,3,217,234,215,216,225,242,25,216,25,4,10,199,50,213,241,222,31,203,22,47,228,32,46,212,196,227,14,221,223,205,197,36,204,35,30,222,40,224,244,44,230,255,0,200,216,223,29,235,49,248,233,211,253,42,218,198,195,255,253,225,220,233,248,240,34,35,236,208,246,216,6,225,56,207,251,219,22,241,213,38,39,31,23,211,252,25,36,245,35,0,16,54,49,26,44,248,252,242,216,242,236,228,219,242,241,254,193,234,0,217,200,10,217,194,220,240,37,238,219,219,16,204,36,243,45,48,215,16,251,205,191,14,10,253,11,224,45,18,220,219,215,238,197,9,234,248,51,200,3,30,18,239,3,211,230,52,221,235,237,247,210,30,50,11,14,202,220,197,224,252,198,54,29,4,230,27,228,42,48,236,242,206,12,16,43,44,203,50,212,234,10,210,231,231,23,5,17,218,52,37,195,35,43,195,195,219,225,247,253,27,45,197,2,25,250,29,24,43,229,4,226,238,5,49,220,51,32,43,204,48,14,194,253,0,235,42,195,206,246,34,216,203,13,33,49,50,17,23,37,27,44,219,24,191,38,28,226,14,12,41,37,48,6,235,40,211,246,250,27,216,40,33,23,240,248,211,205,233,11,232,234,214,9,252,223,218,208,203,56,20,252,252,7,6,40,53,31,248,13,6,223,226,227,22,204,226,255,191,204,245,240,36,42,247,250,239,35,25,218,223,28,27,39,235,3,213,43,252,29,16,28,66,25,199,220,31,202,201,60,254,48,241,213,67,28,27,39,56,202,9,5,39,245,249,43,245,1,1,235,28,194,61,3,208,223,230,243,240,36,41,218,204,72,10,253,220,60,73,61,234,247,31,35,55,234,221,234,13,10,242,4,0,14,255,11,236,245,211,7,46,238,202,255,238,208,5,19,243,240,63,44,61,200,210,9,41,50,235,240,37,4,202,52,1,54,30,18,5,3,16,243,245,185,234,249,46,226,232,225,223,235,218,13,200,191,220,252,203,39,203,233,230,196,215,52,255,41,226,15,247,9,196,28,218,253,205,11,232,13,5,248,190,242,34,227,207,186,161,229,55,209,72,47,73,180,171,18,30,54,66,209,215,115,254,47,210,18,73,240,76,50,220,24,96,123,44,204,11,16,39,56,203,36,217,210,61,249,238,223,36,9,38,43,1,217,204,17,15,188,228,23,252,239,21,227,41,247,26,7,42,206,34,247,227,253,243,3,24,248,22,65,46,4,239,60,5,27,54,40,213,251,208,219,246,227,64,221,254,7,221,253,22,253,240,41,244,34,41,254,54,195,198,51,20,41,58,239,44,249,33,217,222,47,23,243,223,198,221,228,23,50,225,47,14,17,245,209,38,56,49,234,251,244,44,15,253,216,54,224,12,23,14,208,190,35,34,207,6,25,67,209,235,211,22,34,255,5,205,17,31,229,70,29,0,47,11,30,34,10,64,243,46,15,41,41,209,193,246,15,221,13,3,248,14,226,48,58,242,226,222,251,246,53,66,16,243,247,250,213,220,194,56,204,70,206,34,7,240,20,3,71,210,12,2,241,236,82,182,57,23,217,74,0,9,234,196,213,36,44,31,13,56,12,31,36,40,228,21,203,204,246,224,47,179,23,43,1,30,234,231,59,42,24,48,216,206,253,30,197,3,205,215,19,235,246,235,22,31,204,194,247,0,233,202,255,200,18,26,16,50,220,192,0,45,233,243,208,51,15,3,220,50,255,7,245,213,11,38,17,240,209,216,7,43,241,228,16,208,214,233,23,234,7,252,43,57,238,19,210,44,219,31,248,253,233,27,46,3,229,222,230,196,221,207,200,240,242,14,253,41,191,5,40,213,22,242,201,212,235,249,37,245,0,43,0,222,200,231,216,53,190,207,40,41,248,197,208,199,2,32,18,239,250,34,254,49,203,5,216,219,224,52,27,71,250,200,31,204,251,96,23,234,109,25,107,211,84,0,77,244,62,182,11,251,234,225,46,213,170,75,253,244,209,25,20,47,44,253,40,67,220,8,26,191,28,16,8,72,46,46,246,46,19,243,20,52,24,10,59,241,20,49,196,230,15,213,222,40,206,241,236,231,201,35,33,201,213,210,250,228,4,241,204,249,227,2,255,26,210,237,49,47,37,52,52,251,38,44,193,43,223,203,49,223,30,44,194,42,215,42,207,9,198,26,22,11,249,3,236,49,38,12,51,254,53,248,42,243,252,31,7,29,251,248,220,235,11,250,37,240,46,227,237,211,195,43,215,18,226,70,41,203,22,238,237,219,69,26,22,54,77,30,4,76,216,225,29,239,208,203,198,205,28,14,29,216,21,229,29,7,11,12,16,245,55,45,21,245,243,215,49,239,252,26,208,11,192,25,9,236,237,38,55,30,20,242,21,23,1,197,15,197,6,238,194,19,204,198,21,46,218,195,217,197,210,193,194,223,208,19,19,239,31,3,8,203,41,228,22,3,43,235,250,206,14,23,49,60,3,209,25,51,206,200,37,45,225,19,228,249,230,40,203,235,223,192,54,251,30,191,43,34,31,29,197,195,255,239,218,229,52,200,33,228,226,204,8,226,40,249,24,37,22,245,32,240,240,39,218,5,209,16,196,3,21,36,244,227,246,250,235,252,208,31,43,19,240,50,39,45,39,207,207,7,226,234,208,207,38,249,36,33,252,25,255,230,238,59,17,43,23,215,53,228,50,7,53,5,20,56,244,247,251,31,10,29,251,1,240,21,234,253,15,255,8,53,52,218,37,60,217,233,254,224,54,236,5,45,248,30,216,211,251,20,48,44,28,206,229,49,233,201,205,7,6,70,80,69,209,200,17,255,6,206,209,57,83,65,76,12,24,62,51,65,205,227,213,11,15,20,38,56,70,35,204,227,208,9,22,35,201,214,77,238,4,188,7,0,25,63,49,31,202,3,245,217,53,0,35,15,58,230,221,248,18,22,29,9,211,33,1,199,220,8,236,215,211,24,216,42,203,1,209,190,224,243,206,6,191,51,29,23,180,17,198,32,241,42,220,239,59,211,196,250,34,15,30,227,204,211,9,237,40,211,219,234,49,11,247,28,43,14,33,228,246,236,217,219,19,228,47,219,196,21,29,4,255,253,217,56,222,246,23,31,51,246,247,61,29,56,44,205,201,216,237,236,223,69,11,37,44,57,41,225,201,15,201,242,17,15,240,38,18,45,67,3,211,3,14,8,3,42,53,33,17,40,220,246,73,57,207,35,219,37,180,174,38,223,242,2,223,44,60,42,72,11,60,253,14,6,71,18,158,86,27,70,254,47,16,183,80,227,225,33,20,43,224,184,26,50,44,14,28,251,191,22,20,18,224,245,230,25,252,227,36,239,21,31,204,222,243,19,248,228,224,71,77,38,220,231,2,38,233,22,255,222,254,239,215,22,204,55,246,45,244,48,9,253,91,245,237,227,213,225,49,215,24,38,206,41,28,11,24,30,212,66,52,15,34,22,254,62,232,239,211,241,40,222,6,0,238,232,12,203,238,252,245,73,40,232,240,238,248,36,220,61,13,11,55,35,9,217,224,26,244,51,70,29,252,233,226,252,37,215,69,228,240,8,231,251,208,58,246,33,20,2,209,9,208,42,2,236,243,204,241,195,31,246,225,56,39,242,14,46,208,5,48,214,13,26,81,37,63,59,196,1,39,13,206,224,24,238,246,29,51,24,213,6,250,46,65,196,211,56,19,189,73,208,203,28,243,240,22,6,57,209,194,7,252,204,29,71,207,41,230,199,9,1,46,189,210,19,228,42,10,248,7,255,179,250,12,43,63,255,211,53,42,196,8,255,22,230,18,233,44,248,206,18,60,248,19,200,64,219,203,33,204,49,238,8,33,39,220,37,247,43,204,243,235,59,241,24,5,19,201,49,1,9,41,47,43,1,227,11,197,213,200,233,12,10,226,34,209,212,0,244,250,34,21,60,23,205,46,27,7,207,44,51,8,237,55,56,3,202,3,255,2,215,49,39,216,201,246,225,47,206,32,62,0,17,11,200,25,42,4,231,205,240,9,212,248,13,38,216,239,2,234,35,249,237,253,252,30,17,224,250,232,254,211,46,28,63,2,51,238,8,16,26,68,16,12,0,37,15,69,40,223,42,241,222,62,231,14,243,57,179,12,228,185,252,35,199,218,55,197,22,63,245,11,221,12,71,31,201,229,28,223,21,43,40,238,44,1,208,5,3,23,4,243,208,23,6,4,253,25,216,45,36,208,49,61,228,255,225,7,13,54,201,245,214,238,30,12,53,254,194,223,245,236,5,239,235,236,18,252,235,242,238,226,231,246,215,10,190,23,7,7,24,18,2,3,200,50,48,50,15,26,188,211,9,225,13,213,8,205,193,47,37,219,51,11,220,204,53,39,239,34,198,42,246,195,219,234,3,225,10,221,232,213,50,231,12,200,252,12,10,209,23,221,32,58,8,217,4,244,61,26,26,16,1,249,229,203,209,44,221,4,33,50,13,197,205,63,66,219,213,44,60,13,7,204,15,19,37,27,54,226,61,221,33,182,33,60,62,240,57,177,188,31,201,208,193,49,45,28,1,34,219,183,228,5,240,221,45,18,38,205,248,220,14,20,199,213,180,20,214,51,202,217,24,226,196,219,231,222,38,251,246,208,238,173,247,251,221,37,221,174,36,7,192,41,194,236,31,0,8,6,4,5,206,188,33,231,187,200,242,232,23,229,26,204,240,35,15,29,226,29,39,35,223,231,240,236,228,254,233,40,5,18,196,234,32,236,213,229,6,221,197,36,4,44,207,243,251,234,211,225,3,241,196,210,246,240,234,253,56,207,203,48,197,250,0,13,44,26,247,249,47,52,215,24,221,233,33,230,255,40,27,234,17,29,18,198,0,198,2,29,244,27,4,40,41,42,216,245,41,16,26,56,60,41,17,228,198,208,21,61,244,47,254,47,51,34,244,240,32,54,231,211,20,26,6,30,50,8,39,244,246,54,26,10,227,196,234,19,247,32,199,45,231,226,223,23,226,17,225,239,22,216,201,50,245,226,36,19,198,44,36,14,236,241,221,201,198,55,208,39,6,204,192,192,196,41,216,42,227,217,252,47,235,231,240,250,25,21,214,27,32,219,222,205,237,248,242,201,34,252,29,192,17,38,27,36,209,233,42,14,203,33,42,241,49,52,227,50,27,200,204,223,9,252,15,219,233,41,220,226,17,55,25,249,211,29,55,191,2,219,217,221,253,251,17,15,57,220,235,235,2,38,223,39,212,233,13,236,38,206,255,200,197,218,239,37,9,214,16,243,233,215,207,28,51,224,204,244,34,230,207,227,241,249,28,235,202,20,20,223,11,46,15,45,28,228,57,7,13,53,227,202,52,14,235,1,217,202,46,234,215,17,198,29,253,233,2,222,217,236,24,216,225,226,29,206,228,33,29,251,11,230,207,48,1,23,47,199,21,13,49,47,216,238,207,243,12,245,222,216,206,212,223,245,240,199,49,217,220,39,9,16,233,33,217,230,55,56,42,11,218,206,229,55,33,49,48,12,31,207,48,43,26,235,249,201,34,200,52,23,230,42,232,15,15,197,49,194,40,21,212,210,252,52,207,26,238,0,218,39,43,18,197,214,219,211,46,223,225,248,197,204,54,25,218,19,52,242,244,14,30,41,233,30,27,242,7,191,214,37,234,204,249,229,51,223,31,19,0,33,230,237,209,248,238,13,55,208,25,38,202,211,254,8,11,18,201,203,251,206,17,221,220,215,37,53,49,209,24,232,221,242,246,228,34,234,236,46,8,1,0,34,14,22,45,14,251,49,25,17,242,41,5,229,12,3,45,228,249,183,232,252,51,183,46,183,18,228,56,230,237,203,50,30,52,255,77,16,2,88,60,221,224,221,30,225,211,247,73,12,53,2,202,0,232,227,10,23,2,13,50,219,4,241,238,10,6,31,207,11,58,245,206,211,42,13,59,11,50,240,34,206,247,243,24,244,59,24,29,222,12,226,252,14,24,221,3,55,44,213,23,60,243,233,21,255,225,253,246,246,202,45,237,30,58,204,232,218,214,244,33,207,11,15,208,26,33,21,11,51,242,211,58,234,5,24,14,240,47,27,255,29,15,49,24,24,63,227,53,219,22,249,241,235,203,244,20,26,33,37,25,19,236,250,213,200,40,213,62,32,208,212,30,28,237,255,46,227,202,42,36,237,15,6,40,42,60,239,49,71,62,52,211,252,35,54,205,243,224,231,63,252,13,242,212,40,26,216,38,71,71,194,245,50,56,220,212,238,18,113,6,24,19,247,65,8,238,81,240,43,52,20,57,235,7,198,48,48,38,21,242,250,220,218,17,8,9,11,47,218,232,92,14,18,232,199,200,23,28,10,241,228,19,225,88,225,207,14,245,0,251,55,45,220,247,30,19,6,58,200,35,233,18,34,57,254,32,253,251,25,248,255,237,201,68,44,63,243,232,32,48,214,227,57,7,213,227,30,5,9,14,51,55,72,0,206,225,43,6,234,235,48,246,225,199,13,209,50,197,29,59,244,237,32,219,241,6,46,47,215,218,26,16,232,73,38,206,32,21,70,229,53,242,242,32,245,22,27,65,16,12,11,254,10,251,61,1,33,24,225,14,47,3,6,34,60,227,245,210,43,54,192,17,244,38,25,49,35,216,9,11,228,217,0,207,61,218,37,31,60,10,201,232,64,70,221,20,5,35,244,42,42,212,79,36,47,229,250,40,243,64,203,210,221,229,0,47,3,234,19,244,194,236,6,226,17,227,53,243,80,242,51,38,197,226,244,10,229,37,40,19,49,8,35,29,15,196,52,32,202,50,10,16,50,225,56,250,203,233,44,211,9,216,227,223,219,48,197,46,242,203,235,238,59,249,252,39,246,231,13,248,197,225,239,226,21,57,224,53,218,229,1,221,193,26,44,3,37,233,43,217,225,235,22,251,246,254,4,226,236,52,15,42,7,45,62,216,233,220,1,250,43,45,57,33,19,224,20,66,62,229,226,28,56,224,231,219,8,243,45,245,234,49,13,43,45,51,210,220,204,250,239,237,221,50,28,247,8,32,59,252,209,244,19,0,238,38,22,203,238,241,198,18,42,202,53,215,0,185,17,60,26,200,93,61,77,61,64,17,81,178,230,22,24,5,23,252,50,210,200,250,58,44,56,244,38,237,73,190,33,235,171,183,33,236,71,26,60,224,56,169,216,211,8,247,21,52,3,32,248,13,200,255,48,53,32,206,53,252,217,25,5,233,237,234,243,21,206,212,10,252,18,43,239,65,13,214,23,42,17,231,3,236,21,24,213,254,50,229,52,243,27,38,224,24,57,241,240,13,65,40,29,206,241,1,251,254,49,55,50,253,252,28,248,215,210,204,212,42,34,244,224,9,25,241,212,5,24,13,207,221,238,49,54,45,241,211,47,60,56,11,207,247,254,249,234,24,32,239,7,237,17,232,33,227,206,39,224,235,248,19,223,219,227,247,27,204,217,242,244,43,233,34,45,223,252,51,190,212,233,6,32,214,52,53,237,251,220,1,231,233,13,196,26,5,212,34,34,58,195,2,236,216,246,26,231,31,210,67,32,17,12,226,206,20,247,38,37,209,61,242,212,69,33,2,243,212,208,43,26,234,19,58,63,32,28,32,231,14,235,213,43,27,9,24,28,203,17,250,200,32,223,62,68,9,224,28,34,39,32,14,229,42,221,228,19,218,7,234,239,201,251,201,239,54,234,11,211,237,215,240,17,34,236,24,19,229,199,17,254,56,245,226,216,6,238,204,25,27,217,255,215,242,57,11,15,13,245,12,46,235,227,46,40,53,41,248,70,30,252,35,204,255,3,236,202,66,31,28,12,62,32,250,213,250,237,0,246,38,211,58,19,253,236,232,22,219,207,44,251,223,52,209,54,2,21,34,197,215,2,232,55,228,21,236,233,226,221,25,33,252,210,12,221,197,35,5,44,13,20,201,233,47,29,253,34,2,19,195,9,60,22,45,4,22,109,56,227,214,230,100,42,215,11,37,24,246,6,12,191,241,231,85,227,32,61,49,226,245,3,44,1,19,66,43,6,15,23,253,219,24,78,21,245,36,244,32,225,247,9,43,197,229,231,223,20,19,6,213,28,204,3,29,48,35,243,219,237,225,238,215,36,0,22,8,254,252,55,23,198,233,53,204,251,24,21,7,8,207,219,225,30,0,44,28,48,253,223,33,203,54,219,53,34,61,239,51,244,209,21,68,55,242,51,202,23,223,34,218,34,6,214,229,233,230,240,75,11,37,251,217,213,1,231,253,62,220,217,241,244,81,11,11,29,3,5,63,64,35,68,30,57,221,17,24,76,5,74,64,55,2,225,56,5,51,75,41,77,220,214,19,254,40,247,221,7,205,236,9,52,48,231,15,10,201,63,15,56,8,176,26,40,8,248,22,53,220,248,55,31,241,17,27,214,32,49,33,41,253,236,207,239,188,29,9,232,242,223,16,200,29,0,214,200,211,236,2,51,22,53,193,197,198,5,229,20,225,43,253,238,247,30,243,245,19,197,209,3,32,12,241,206,227,246,229,18,8,211,199,226,203,59,17,209,50,243,213,10,10,230,18,9,193,19,24,37,241,211,231,27,18,33,55,13,221,233,38,240,252,210,41,202,197,15,37,31,224,230,29,235,255,224,58,51,30,43,249,236,243,14,242,250,228,21,254,232,243,251,234,195,219,20,232,230,62,249,245,217,233,238,49,68,5,199,215,40,49,33,36,42,59,228,208,6,222,197,235,223,229,64,26,245,43,224,244,38,232,215,28,0,226,246,252,28,33,200,244,248,27,214,26,1,37,51,248,59,40,142,248,44,12,54,35,241,14,194,12,180,239,107,26,204,58,57,20,60,213,180,240,15,230,32,14,194,32,8,11,253,69,61,34,217,23,43,212,203,217,19,69,228,37,73,255,254,67,210,249,254,4,233,27,1,253,28,234,196,0,68,243,62,239,211,4,236,34,246,201,14,36,51,24,13,203,8,37,226,222,251,4,25,222,255,17,247,223,208,246,228,45,13,22,253,33,244,13,229,29,233,229,247,250,38,56,41,208,212,211,57,245,34,246,205,1,33,63,195,30,35,19,9,242,188,25,237,23,230,24,213,23,247,214,51,61,49,47,24,214,14,248,246,29,216,215,17,15,202,19,231,203,53,52,230,227,47,249,217,23,240,21,56,39,229,243,18,14,210,4,247,57,8,223,46,54,210,3,35,202,47,252,238,218,45,57,243,27,242,12,230,224,5,215,212,8,19,214,255,243,209,9,36,30,206,206,221,231,41,216,231,201,208,213,32,234,208,240,251,237,53,31,210,200,47,247,34,30,0,34,222,235,245,243,13,25,247,221,18,12,211,2,219,240,235,217,234,2,39,14,212,26,56,24,222,6,221,25,41,58,217,249,217,197,22,47,204,26,22,209,241,33,246,26,212,209,205,31,16,1,36,60,21,0,249,199,21,244,253,48,27,60,42,242,213,247,231,217,221,58,222,239,229,216,228,209,231,12,36,242,203,209,254,202,223,37,24,3,18,202,213,8,235,219,218,213,223,209,214,247,205,246,224,229,250,56,45,206,248,12,30,238,204,216,247,253,8,0,17,251,248,58,47,217,250,203,40,28,242,53,255,9,58,229,216,233,21,33,203,29,233,33,15,15,240,246,226,239,22,16,42,40,26,33,33,208,5,199,225,206,252,241,201,232,217,4,19,18,15,208,32,189,198,242,206,200,50,210,44,213,227,46,51,220,200,50,207,205,39,233,39,53,252,253,31,204,225,32,200,4,216,19,189,241,14,36,192,237,45,202,19,27,200,15,235,231,244,199,16,54,13,213,38,227,2,203,206,255,33,15,193,224,211,254,50,36,198,192,19,45,18,48,54,23,12,32,194,22,2,49,36,33,232,250,249,213,219,247,210,196,33,49,235,203,243,235,230,53,244,207,204,16,19,7,46,204,208,44,2,223,246,235,38,42,36,46,10,247,50,232,209,53,20,31,196,210,221,49,239,17,231,41,254,36,254,46,235,10,7,195,48,7,202,2,40,51,10,255,231,38,251,248,234,54,27,213,215,13,1,47,241,36,9,46,6,37,237,200,58,254,40,244,10,42,226,10,236,26,252,238,49,2,221,17,44,225,17,231,186,62,45,33,238,71,6,246,10,210,250,19,214,235,27,65,11,73,219,43,35,251,231,26,207,11,184,194,243,10,30,9,213,54,4,254,10,188,205,19,49,10,65,233,9,65,172,59,25,231,3,248,25,18,216,0,212,1,242,243,211,58,253,231,219,204,34,25,38,46,245,5,43,227,15,33,255,10,36,50,44,13,59,223,44,58,27,24,33,38,242,52,11,74,10,30,14,204,234,240,34,34,208,245,30,63,37,45,38,222,10,227,40,216,49,40,247,255,44,10,207,16,207,22,45,229,253,235,26,31,22,240,36,216,228,240,238,11,251,215,3,26,246,21,208,26,229,246,57,5,226,215,227,9,46,25,33,246,48,30,72,228,226,45,208,35,238,6,209,10,27,200,9,218,30,229,233,247,68,65,31,34,35,246,56,174,224,66,13,2,24,223,103,239,194,205,230,221,247,238,246,216,41,194,240,29,171,44,51,29,36,40,26,31,53,54,13,70,216,72,223,11,21,55,249,245,28,254,25,22,24,39,34,7,225,31,224,244,33,253,8,35,69,38,56,236,44,1,255,25,227,10,218,229,253,215,22,33,33,14,28,43,5,33,52,219,201,241,210,219,234,34,12,222,20,16,199,2,204,24,203,18,10,46,23,240,6,241,67,206,26,205,41,29,31,3,8,64,232,13,26,10,76,208,197,48,36,42,233,226,59,237,243,16,208,27,243,40,38,236,234,253,253,237,62,62,216,217,2,245,216,24,0,50,250,8,242,55,252,253,207,229,78,232,83,20,50,234,205,235,23,255,38,220,11,52,41,8,34,69,229,25,9,245,33,20,1,45,243,249,238,255,49,236,203,19,131,18,189,7,179,214,225,83,181,31,215,18,29,16,237,47,77,224,234,14,176,251,223,14,17,79,55,254,59,68,15,20,213,2,20,11,237,97,51,2,14,210,28,14,247,7,5,19,31,209,25,48,7,229,13,54,56,255,27,11,60,5,41,237,251,15,253,11,237,4,37,226,19,251,253,196,223,15,31,40,202,210,2,14,19,209,240,50,213,57,16,219,23,64,5,14,247,217,244,208,211,251,34,227,39,241,27,53,21,250,207,38,222,41,28,43,61,234,237,66,57,215,27,77,26,77,229,16,73,239,209,43,58,252,25,221,9,24,35,218,8,0,34,56,58,48,6,11,61,20,30,21,44,22,6,74,54,47,10,47,56,214,202,234,2,208,239,235,11,189,47,42,39,39,12,27,47,4,226,244,229,224,70,238,216,216,0,37,247,229,233,244,76,240,40,11,11,247,235,223,70,26,253,207,43,253,232,210,233,56,71,72,27,219,224,242,27,238,255,235,23,67,11,41,237,78,25,33,62,52,10,41,73,220,51,242,31,73,16,2,229,228,25,244,254,41,236,231,232,26,30,245,26,38,236,12,43,44,0,57,237,10,6,226,15,209,213,8,21,213,35,23,248,36,60,216,23,33,242,225,214,55,4,46,250,68,18,14,242,244,11,215,221,254,230,18,0,34,36,211,245,38,229,15,27,15,5,10,17,57,56,227,34,23,223,218,5,216,30,4,2,245,39,238,211,50,197,230,222,204,246,9,52,45,216,63,13,17,17,217,73,60,4,211,9,216,41,59,223,48,69,42,223,8,58,78,30,216,13,40,48,215,232,54,6,46,54,248,21,15,213,29,59,231,20,82,12,205,57,10,65,64,231,215,1,4,15,246,248,24,209,95,254,211,213,202,23,253,12,243,66,205,19,7,4,239,31,250,81,9,84,213,21,19,18,38,21,246,57,221,18,0,66,218,9,190,245,247,236,27,49,0,57,168,237,42,38,29,10,16,19,237,205,18,218,226,212,253,237,252,230,205,4,42,46,252,20,208,35,17,25,54,233,13,201,42,23,193,38,241,221,20,250,204,225,206,243,42,204,55,9,26,210,196,8,198,246,59,52,32,240,240,46,233,59,231,226,214,228,231,8,33,213,24,233,57,224,246,223,36,26,236,235,208,36,8,220,232,47,241,46,5,210,25,47,209,12,61,225,2,9,210,202,198,33,9,25,9,26,30,231,206,47,215,27,10,218,43,216,255,252,236,231,13,27,10,252,226,186,200,240,217,33,49,47,212,6,236,203,10,192,9,16,24,244,250,243,215,28,223,24,56,202,220,45,30,231,35,252,3,34,35,209,249,2,224,244,224,50,36,45,207,50,200,55,44,208,42,28,238,53,222,37,215,62,23,214,22,217,227,217,16,221,239,253,59,27,40,27,214,255,207,255,220,242,198,253,67,20,230,230,208,205,49,39,42,16,6,39,239,13,14,37,26,66,10,199,63,60,46,233,203,230,40,66,211,197,57,48,39,206,42,14,19,20,51,254,235,18,213,253,56,1,64,206,41,202,36,255,17,44,209,235,1,57,251,213,65,45,206,46,13,10,5,36,207,54,51,244,1,212,24,28,41,248,239,59,49,233,63,220,37,63,45,203,44,243,215,62,5,232,2,255,198,195,198,254,2,40,213,216,45,44,192,45,51,45,228,60,27,213,14,15,51,233,219,244,244,17,213,236,1,233,250,93,21,238,100,26,200,188,220,24,1,73,94,21,22,95,221,76,164,47,247,40,78,12,206,190,47,65,64,220,37,63,52,11,24,247,235,200,231,253,12,27,245,246,254,234,227,253,195,5,40,242,41,11,221,192,254,4,210,67,12,210,25,40,22,208,238,19,38,44,40,43,2,4,191,15,239,42,250,49,226,227,226,213,39,31,59,58,33,248,4,4,225,43,7,55,241,232,249,213,242,7,24,68,230,50,42,25,244,214,58,26,38,5,203,252,230,223,57,57,47,222,242,30,233,242,236,231,12,7,8,11,238,51,226,250,215,210,220,208,220,34,220,41,223,216,6,220,250,61,11,26,49,25,251,37,250,231,244,23,219,66,8,241,228,47,25,1,12,223,234,211,26,18,21,4,12,242,39,29,36,202,197,16,237,194,23,22,22,219,46,221,194,209,232,229,234,208,56,39,53,241,55,28,213,45,12,7,225,216,45,230,16,3,17,250,36,241,254,202,54,203,228,255,12,200,42,234,224,210,245,232,0,253,26,236,1,212,222,213,222,245,206,213,212,39,232,35,240,47,3,240,54,41,219,33,35,201,35,209,226,210,243,204,38,239,4,19,203,25,39,50,237,215,41,19,218,247,213,22,28,225,13,235,239,198,35,202,1,45,2,242,207,55,50,39,42,210,34,5,207,12,17,207,52,12,218,215,49,208,238,231,215,19,212,27,230,247,228,22,33,9,225,55,31,225,24,33,17,47,42,216,210,208,34,244,246,217,8,204,15,226,231,35,43,18,212,211,18,4,228,210,240,8,219,20,220,223,194,221,8,1,10,209,234,217,15,199,254,45,224,51,205,232,234,39,24,226,12,23,237,247,29,35,213,192,220,228,64,46,68,223,250,247,193,20,245,194,253,199,55,52,38,238,84,47,249,50,242,244,64,75,210,19,27,215,37,81,215,13,245,233,19,16,214,24,71,202,215,20,200,205,23,189,52,243,191,243,211,26,55,14,216,196,232,31,51,213,37,221,68,230,65,210,28,9,8,46,39,39,43,43,206,19,35,10,249,36,214,23,239,243,13,38,3,244,226,68,229,208,198,251,50,32,255,20,23,218,209,245,57,220,206,6,228,250,226,64,11,218,23,1,242,15,208,206,1,60,22,206,27,49,204,241,254,205,26,231,28,202,245,55,189,209,217,207,228,24,36,31,227,5,32,255,225,9,221,249,29,249,203,214,253,45,213,40,38,215,247,222,207,207,232,255,24,243,31,37,214,44,203,2,245,226,26,199,27,68,210,227,216,43,225,35,15,225,186,41,212,217,93,195,46,253,31,17,221,225,242,193,6,217,43,206,205,226,34,88,51,83,61,208,98,79,234,210,238,32,13,43,40,53,20,7,28,220,2,255,238,66,203,17,39,49,227,202,51,251,70,7,10,16,30,225,196,64,238,252,231,37,27,227,248,53,196,220,36,229,3,0,218,37,52,17,234,46,26,55,39,22,14,247,16,218,8,56,9,22,211,215,251,225,239,200,201,18,50,209,10,11,26,5,30,219,55,60,54,205,25,224,221,14,230,64,217,37,18,229,22,68,214,16,224,42,38,15,54,46,66,237,226,247,31,216,23,198,6,62,217,20,216,71,226,12,39,230,47,228,42,76,219,16,22,32,243,230,231,47,46,53,215,77,208,222,239,55,254,47,5,46,47,6,22,55,6,36,236,50,207,20,23,55,12,218,232,242,218,217,245,16,239,225,212,47,11,4,202,212,172,62,221,199,87,226,72,178,32,31,241,45,90,35,40,76,73,245,211,249,197,10,50,168,25,236,202,224,61,36,40,232,193,7,0,63,64,217,253,15,250,184,246,246,202,15,34,44,234,57,13,12,59,204,210,193,19,3,8,7,189,243,46,31,194,31,245,41,197,222,2,47,52,1,238,222,212,213,45,0,218,216,235,219,240,38,22,212,240,229,206,214,222,250,203,1,225,3,12,53,199,231,239,16,29,205,242,50,35,216,5,222,30,230,55,1,250,57,25,247,68,230,1,8,6,237,247,233,26,45,250,236,1,74,1,232,51,33,65,55,53,207,209,17,244,226,221,219,15,226,209,27,254,242,29,223,247,232,239,246,38,6,1,59,23,229,7,246,201,45,252,69,29,32,53,203,223,8,4,62,255,42,245,216,183,28,237,52,9,37,198,251,8,87,193,189,83,80,7,229,25,237,3,204,14,35,19,92,44,76,28,29,196,34,38,191,205,250,252,20,202,243,24,32,236,239,13,212,247,11,11,254,44,255,210,38,233,35,27,84,229,242,54,199,9,6,239,233,14,243,249,46,252,51,3,53,2,27,9,21,12,217,14,46,213,15,199,251,246,216,207,12,31,209,251,228,211,18,18,10,29,225,31,214,17,8,11,247,10,10,10,245,13,236,226,30,207,8,55,243,220,208,232,196,237,250,194,252,248,215,10,245,254,239,252,246,34,252,0,241,205,24,51,8,226,208,10,218,249,41,33,222,42,212,191,27,32,216,253,23,6,16,23,24,227,50,247,214,251,52,208,15,42,22,11,251,29,43,233,204,38,43,254,210,3,244,51,249,245,197,16,218,250,97,213,233,213,52,248,85,10,15,246,239,239,35,219,233,51,236,67,32,192,23,86,220,7,215,65,46,181,7,24,62,206,207,216,25,0,11,250,196,228,16,225,234,7,40,7,212,9,239,50,28,6,226,31,240,235,199,245,187,60,33,226,249,221,237,11,34,47,249,26,195,57,62,32,56,41,10,238,204,228,34,3,212,220,239,213,240,214,39,251,221,24,48,42,243,40,235,230,48,42,38,54,218,5,240,232,20,244,192,14,6,208,20,230,238,200,249,239,205,22,32,7,9,30,253,40,232,250,3,248,208,241,186,22,200,195,230,20,12,51,230,219,9,202,9,214,55,37,223,8,200,0,9,19,10,245,18,39,47,19,191,219,245,19,24,43,242,251,247,38,36,220,25,37,217,48,226,22,20,192,212,238,253,11,18,230,199,190,252,186,209,36,9,223,14,3,222,36,220,54,16,81,18,253,200,5,251,16,244,63,21,25,207,23,17,230,234,41,7,195,235,49,56,201,21,235,71,228,61,19,9,55,219,220,212,230,15,237,16,33,229,56,24,207,251,228,205,53,4,2,182,199,214,16,66,30,20,225,21,215,243,1,215,231,32,9,38,215,251,207,59,10,2,219,225,15,229,223,50,11,4,35,7,193,3,219,223,52,60,242,4,40,7,213,213,33,213,39,235,225,243,240,224,246,0,225,229,220,38,36,250,62,233,45,25,209,229,54,201,208,235,211,33,243,37,226,2,247,71,1,0,35,24,249,39,205,25,4,207,225,217,21,22,207,253,33,32,55,29,52,206,13,222,222,212,217,36,242,26,62,1,24,226,197,211,224,10,4,31,213,41,13,29,10,225,12,231,235,57,59,65,215,9,220,228,254,5,236,223,214,224,217,215,61,208,55,25,22,73,213,191,18,62,19,235,253,7,29,218,201,37,15,165,9,17,60,40,2,114,10,56,220,52,70,240,8,29,6,30,17,236,21,219,57,52,21,248,85,21,18,204,51,219,211,235,75,42,40,2,41,205,39,18,232,63,226,255,234,41,18,213,238,43,239,229,254,208,204,5,19,27,29,253,237,57,37,74,44,190,255,42,62,32,25,242,234,233,56,30,34,16,220,14,17,46,21,44,249,14,33,26,25,10,248,57,211,15,10,24,28,240,23,75,30,65,21,36,67,16,75,39,242,234,31,55,223,252,34,55,232,227,28,19,236,76,71,26,4,66,58,43,35,38,24,238,16,63,74,52,61,16,11,12,251,251,221,252,36,40,20,227,217,37,18,40,70,64,219,28,222,4,11,50,223,231,29,16,2,44,239,200,24,219,44,195,12,29,201,21,212,77,49,234,48,17,35,198,203,210,2,42,234,70,10,36,245,2,23,2,20,240,242,16,243,21,16,204,239,28,205,247,234,63,238,49,4,50,237,23,66,207,74,252,36,28,220,249,40,229,7,234,244,0,219,55,45,33,8,247,21,181,240,226,56,47,229,36,208,238,249,196,23,67,249,14,42,208,243,17,202,206,247,221,18,239,5,61,199,202,52,39,7,196,237,236,42,50,202,221,239,4,0,236,9,29,4,208,212,230,38,33,243,231,4,230,64,219,236,6,242,51,252,35,227,6,214,221,57,24,64,208,36,48,229,249,18,9,42,204,221,224,63,25,0,8,5,53,237,212,246,16,231,60,243,234,248,239,1,226,41,20,66,0,36,33,246,229,54,231,1,54,253,75,7,0,27,220,20,59,192,236,61,48,12,202,79,9,251,216,206,168,46,227,58,206,57,19,3,67,97,255,230,255,99,34,196,33,201,255,40,78,255,45,226,70,36,189,208,19,217,197,27,29,210,221,36,7,234,47,211,248,249,44,176,218,208,40,204,242,195,203,230,43,25,24,24,4,237,54,23,241,32,71,27,5,208,248,253,206,59,0,248,1,252,15,3,34,248,209,219,218,0,0,224,200,224,196,201,19,207,28,192,228,31,14,247,2,216,4,242,243,230,59,34,37,193,210,203,213,247,253,227,24,220,250,204,6,18,36,37,44,199,44,203,38,254,228,247,13,46,12,4,246,229,36,244,209,11,24,7,35,33,55,31,11,6,59,210,221,215,13,214,32,46,203,19,217,0,197,237,212,15,7,226,24,188,211,252,51,11,241,30,17,43,198,50,35,4,252,25,17,216,46,236,44,241,51,234,27,57,41,188,239,213,228,16,87,6,221,254,206,74,201,251,9,246,89,50,69,22,14,31,200,12,255,228,243,254,1,242,238,4,66,230,27,42,51,53,9,56,56,216,190,248,217,22,21,48,222,3,41,224,202,204,57,217,225,248,225,21,48,212,8,55,47,57,17,247,216,251,214,239,47,51,38,25,9,40,237,13,37,25,8,0,211,221,255,49,41,237,254,253,200,224,13,220,253,212,0,233,41,55,254,12,34,17,21,49,206,33,198,28,214,222,240,27,245,36,55,43,205,205,227,216,51,217,242,231,211,31,30,25,47,21,52,22,43,223,221,53,39,228,1,53,243,19,249,7,33,216,219,41,25,32,253,45,7,46,231,15,204,47,22,203,50,57,52,61,250,220,20,244,234,12,249,42,62,213,51,239,32,18,71,249,226,6,227,50,170,227,42,2,14,231,40,45,214,43,226,48,172,208,7,3,53,39,4,235,231,217,228,180,71,64,4,64,11,39,74,183,237,5,84,83,215,35,58,198,242,247,45,2,208,8,69,17,27,196,31,203,41,209,243,175,202,12,58,2,187,63,49,200,189,42,228,60,244,48,232,23,1,33,250,219,31,4,37,238,52,216,200,7,218,0,14,34,57,234,241,5,17,233,215,247,50,240,19,246,251,220,56,6,12,48,205,11,7,238,221,48,9,223,23,230,246,6,9,53,48,201,244,220,231,255,0,37,36,60,12,58,208,23,53,18,50,194,28,191,206,28,18,45,218,238,247,199,225,3,24,59,36,11,248,219,244,236,253,234,48,63,221,239,241,206,244,56,207,207,51,239,9,24,208,24,226,240,2,255,13,63,238,252,231,240,253,38,203,243,198,4,32,41,16,225,48,56,251,228,28,217,85,12,202,43,203,78,187,4,232,7,26,218,31,22,33,47,0,57,250,201,228,210,191,50,30,44,38,25,22,15,22,35,230,53,223,45,222,59,24,47,68,54,20,66,194,19,13,243,6,6,61,216,45,46,17,243,21,225,42,240,255,214,209,235,236,211,221,198,22,50,244,11,247,244,11,37,241,243,75,63,63,243,225,195,224,219,21,16,35,236,70,222,2,218,201,16,0,229,11,210,253,46,199,252,16,230,231,2,226,248,14,21,193,194,16,237,246,1,224,225,32,205,48,213,9,238,25,196,53,26,62,232,49,186,6,238,242,6,27,221,62,49,223,51,220,236,225,243,228,196,199,17,50,54,222,200,213,230,225,40,3,245,213,235,241,236,23,42,209,222,252,12,221,231,8,210,255,219,5,225,37,194,230,205,34,26,40,205,47,27,30,13,232,14,35,53,206,217,235,239,205,214,196,29,56,3,201,201,241,247,22,239,210,22,45,247,26,212,46,241,239,11,42,9,34,199,217,46,22,211,27,56,54,36,35,3,224,206,234,9,245,214,254,15,20,40,1,194,34,240,35,227,202,12,221,22,45,209,16,214,247,202,198,37,10,225,202,17,201,10,235,244,216,31,37,43,59,198,222,198,53,44,198,248,207,0,7,53,17,4,194,229,17,241,252,20,30,238,196,250,203,197,245,10,243,18,250,37,52,207,1,40,239,26,215,242,201,16,55,218,7,54,232,198,31,201,240,41,5,241,50,12,244,248,38,239,13,19,207,23,23,236,4,0,198,212,31,6,42,55,238,17,215,231,18,58,25,212,7,253,236,54,195,21,202,248,3,57,27,102,8,21,81,57,250,218,69,243,54,246,254,40,86,200,205,0,27,224,33,36,205,213,244,217,199,213,44,199,64,244,47,224,5,69,61,244,227,37,36,60,229,244,248,9,14,222,244,230,232,57,60,8,1,25,24,47,23,25,200,223,250,58,69,26,222,34,241,21,226,206,47,2,6,43,54,25,34,199,35,35,21,213,5,228,209,18,184,11,17,228,201,11,236,65,24,250,227,240,16,33,51,4,229,43,217,15,231,44,13,63,33,204,50,223,242,235,8,202,41,235,19,30,16,22,218,12,231,53,209,202,221,67,240,52,57,252,46,55,14,12,57,219,9,51,231,31,47,64,24,207,246,219,42,49,68,40,60,245,36,227,252,236,2,51,234,25,4,232,36,193,223,35,67,246,214,32,239,217,56,251,45,17,18,50,249,29,244,239,11,247,86,48,63,70,45,254,243,23,103,253,247,59,69,36,22,15,21,61,205,18,87,11,253,171,151,243,207,211,35,170,51,1,226,57,27,243,24,18,206,218,0,246,49,245,23,242,216,3,198,53,59,232,17,254,22,203,214,29,242,12,20,248,235,244,21,238,2,253,62,34,220,214,71,231,216,212,21,38,209,20,229,16,34,242,198,23,225,226,240,53,225,19,19,40,59,218,10,250,2,217,5,208,61,225,20,214,50,189,248,32,36,22,240,15,34,231,211,48,6,207,226,230,38,225,3,235,225,50,44,237,66,206,202,14,42,230,35,32,14,18,35,27,241,247,47,194,204,34,38,23,231,48,212,196,16,10,236,38,216,12,234,219,7,245,17,238,25,227,250,6,244,245,244,204,241,41,9,239,56,21,213,7,225,211,53,11,54,25,231,39,193,219,43,213,208,50,211,31,23,52,50,44,37,201,25,67,51,250,9,16,14,243,199,206,245,232,34,248,241,26,29,204,208,252,7,5,240,225,202,240,246,27,244,29,230,47,27,233,255,202,240,40,188,48,13,6,23,15,228,8,199,209,209,6,28,5,17,194,39,226,24,218,49,201,18,204,39,36,31,22,190,17,253,197,229,198,227,229,225,213,226,227,253,23,20,244,25,229,9,225,54,199,44,251,236,242,245,236,253,203,196,246,255,27,32,11,207,248,22,7,230,12,8,223,225,36,27,244,41,20,18,21,30,235,25,232,243,19,195,55,210,17,13,206,236,47,243,190,2,220,7,203,23,244,196,8,26,230,205,229,217,52,214,3,37,239,20,247,20,206,204,28,215,33,201,233,50,15,202,229,212,42,248,229,20,243,231,219,34,207,247,202,42,3,221,18,251,237,232,255,68,196,204,248,46,205,217,3,242,213,220,246,36,49,250,13,221,201,234,220,250,227,228,237,227,194,31,192,247,234,0,43,228,14,232,197,52,216,221,24,19,26,40,18,49,249,44,46,21,30,234,29,242,199,47,254,8,237,35,3,36,33,50,48,253,39,33,23,33,217,49,195,27,33,0,57,212,196,236,1,6,2,255,224,48,28,16,12,27,251,220,200,40,230,222,198,221,195,53,16,35,192,233,208,4,245,214,195,31,57,250,34,17,50,224,227,34,21,201,27,9,242,20,36,41,208,249,26,18,0,228,48,55,235,37,33,220,21,57,59,25,37,0,19,211,34,210,214,0,195,49,11,55,30,30,31,37,45,42,211,52,15,17,198,19,206,209,195,201,9,210,219,7,204,19,21,0,32,212,202,43,252,11,255,6,220,12,48,5,38,61,3,227,36,189,231,55,70,243,51,218,15,29,36,246,204,2,24,46,218,23,254,212,210,162,67,45,51,251,229,42,237,196,51,218,29,228,215,182,4,39,34,0,238,46,45,2,32,24,73,7,6,213,5,225,0,39,15,191,15,213,194,227,230,251,243,227,225,197,236,205,241,57,228,252,226,196,237,174,47,36,225,203,207,14,224,255,221,8,243,21,250,204,218,39,240,2,5,247,246,193,216,233,241,212,38,249,1,36,217,238,245,27,22,19,253,223,225,227,15,217,31,237,213,196,226,223,239,22,200,245,48,227,201,255,52,55,198,14,70,239,239,191,226,3,249,208,21,12,7,22,211,41,33,248,58,204,217,217,196,30,52,208,36,49,252,14,26,227,16,221,255,246,56,5,209,200,1,24,20,54,31,215,42,233,206,15,224,230,213,53,6,214,235,174,243,13,212,4,20,198,69,242,20,66,24,226,26,254,16,228,251,28,240,48,21,47,244,245,74,221,216,221,214,23,249,251,206,212,42,228,234,220,244,209,24,60,32,15,8,42,234,55,211,72,0,33,22,245,24,50,223,25,45,58,241,16,5,224,204,236,232,230,66,55,242,10,3,253,253,34,200,211,6,59,51,45,54,192,236,208,55,8,46,12,15,243,18,3,25,19,220,25,46,248,213,38,25,194,207,238,192,247,23,57,55,192,9,205,5,253,5,255,227,22,225,51,243,25,244,186,244,201,245,38,11,44,225,241,213,254,41,234,14,217,19,249,208,19,19,185,207,192,33,218,221,36,202,22,32,17,201,209,30,38,1,223,252,10,24,198,35,248,11,252,226,239,46,3,247,18,60,254,237,253,3,11,0,17,248,6,236,232,58,32,216,127,16,217,97,209,187,20,155,26,71,225,63,76,80,180,222,228,52,234,29,100,36,204,252,50,33,4,228,20,219,34,16,53,208,253,16,58,189,13,27,18,26,36,248,49,16,50,255,51,45,85,249,5,82,72,6,12,251,32,194,223,59,182,235,254,235,16,249,253,16,5,51,248,202,210,238,15,238,15,207,224,30,215,211,206,28,5,252,192,222,40,29,48,220,236,2,213,28,22,44,217,255,228,57,237,193,12,244,7,57,215,207,226,206,236,18,240,0,1,53,216,210,44,43,201,255,46,41,50,41,254,57,212,9,31,34,60,192,232,17,26,20,239,11,52,38,22,23,0,25,254,251,0,13,65,249,250,7,248,2,21,41,19,60,240,48,14,16,30,247,220,220,250,213,213,37,59,52,251,50,232,234,30,11,17,19,232,252,208,13,54,173,14,70,28,228,248,26,223,9,225,27,38,254,51,30,68,3,212,11,191,31,80,252,40,214,60,232,55,220,193,26,218,235,68,243,61,255,215,196,234,42,214,52,24,68,5,234,19,238,25,223,28,23,22,7,244,243,11,221,35,203,226,215,16,218,8,47,14,219,19,240,252,220,246,197,8,33,233,0,45,51,207,43,41,23,255,245,247,204,216,220,224,252,39,249,21,219,14,212,192,218,233,223,48,34,49,204,227,54,251,217,203,29,209,43,55,6,1,24,226,2,34,23,11,209,210,44,222,18,52,0,199,196,239,61,230,202,61,41,9,2,46,196,196,54,8,230,41,30,227,206,242,5,28,41,224,67,199,244,222,64,248,29,219,243,49,218,40,21,242,231,5,47,253,254,12,252,247,13,41,187,215,200,217,60,42,187,31,6,254,69,62,17,167,236,230,228,233,29,240,49,164,8,10,56,12,166,1,23,27,13,167,0,232,254,41,246,67,27,26,29,246,215,31,27,209,39,57,236,228,46,49,206,47,12,13,42,221,209,15,230,224,171,205,69,183,182,253,24,36,52,45,71,225,41,14,243,6,40,227,45,241,20,75,53,43,22,231,4,192,48,43,64,201,248,50,232,217,242,211,8,212,241,0,7,31,56,10,240,241,240,77,7,37,7,48,253,212,218,200,71,226,238,215,22,217,47,67,32,4,255,67,234,43,236,194,50,245,207,206,242,212,247,53,197,40,247,45,204,249,231,226,207,13,237,206,247,242,225,222,252,43,242,223,32,231,57,229,253,210,190,27,210,216,4,254,241,250,214,35,230,40,28,234,11,208,50,206,219,239,13,44,254,31,52,208,48,198,239,76,80,54,230,222,50,218,6,39,56,213,56,46,1,252,236,66,47,222,248,214,28,208,182,242,197,6,244,229,200,209,88,247,21,33,42,53,243,40,17,219,203,255,218,192,218,233,28,207,71,1,0,47,202,195,7,211,249,5,56,14,38,6,39,17,57,10,31,63,52,243,224,31,223,201,243,214,219,11,185,40,16,10,191,251,218,205,34,15,253,215,211,221,4,16,39,56,46,237,40,253,32,46,60,203,47,7,219,249,40,26,233,14,236,185,14,31,57,12,33,248,13,190,2,33,219,225,11,237,49,186,236,227,200,216,198,32,213,253,40,9,241,61,22,218,6,17,240,223,26,43,212,239,230,18,5,216,240,38,254,66,16,50,11,7,218,241,216,27,58,19,214,192,30,73,243,65,227,61,25,17,1,15,49,15,253,65,17,25,221,2,203,243,242,33,39,45,12,15,57,254,250,42,9,33,241,227,179,103,217,56,247,8,14,223,219,250,233,231,28,2,65,28,71,6,28,228,20,7,50,207,216,187,188,22,36,201,237,167,206,212,242,220,218,211,21,5,227,205,52,180,235,31,44,250,47,220,42,10,212,200,247,185,205,22,203,231,45,238,22,32,223,213,209,233,188,20,7,195,32,29,35,206,220,220,35,227,1,28,54,48,66,43,39,39,35,234,23,13,16,15,29,56,51,52,242,27,41,219,213,234,233,218,3,10,40,62,20,57,243,219,21,215,249,52,233,30,213,233,49,53,250,38,215,56,226,10,210,35,38,66,1,218,220,18,240,249,250,57,69,244,221,252,249,216,26,41,252,213,52,234,48,221,209,8,227,30,205,9,215,229,24,45,66,240,19,231,235,59,255,249,38,27,27,215,34,9,250,237,11,249,50,215,203,38,204,189,34,8,2,251,8,211,197,225,218,26,238,35,212,210,35,231,212,2,9,26,36,251,194,248,243,198,223,47,34,41,0,41,215,17,196,11,195,49,20,30,35,32,214,207,192,226,27,219,14,247,206,192,37,22,10,22,221,26,47,240,25,0,36,34,196,40,208,218,224,51,233,201,250,32,39,17,202,10,10,212,205,202,6,28,39,8,20,217,244,231,221,4,237,40,16,31,231,219,10,11,207,33,1,39,29,199,218,247,40,9,9,197,51,243,205,245,224,236,227,24,5,220,37,27,43,209,36,23,234,197,220,227,200,55,44,199,196,221,224,23,32,7,21,36,213,26,19,220,234,233,36,43,194,19,1,225,225,54,211,32,9,207,51,39,224,56,32,230,219,6,33,243,232,198,237,191,216,24,214,21,223,201,49,205,213,48,200,209,220,10,249,206,203,16,197,244,38,199,17,215,227,239,14,54,31,0,215,15,253,228,34,15,198,21,225,46,201,241,38,30,8,197,5,9,240,8,55,26,253,238,231,254,26,217,27,1,19,244,36,15,253,241,205,197,0,225,7,40,47,234,209,241,43,30,32,43,250,23,200,225,237,212,232,201,230,16,1,255,221,17,212,254,26,41,211,234,254,41,16,239,9,59,16,211,246,238,199,251,236,231,57,13,232,221,38,235,8,17,48,16,225,249,203,30,208,5,38,39,240,216,38,250,47,30,23,0,228,29,239,219,238,6,210,214,235,231,15,52,254,241,228,52,211,217,53,14,242,34,234,44,218,230,50,2,49,209,5,51,242,22,253,25,57,28,227,47,52,28,240,10,31,249,54,39,236,17,243,219,6,10,38,205,80,14,36,29,211,90,16,27,30,207,241,44,248,17,255,176,247,108,46,27,181,215,68,233,5,72,0,171,62,61,178,239,194,62,39,13,211,76,252,38,255,41,49,10,40,34,209,74,5,57,249,253,24,15,18,17,59,209,34,78,64,241,20,214,199,232,246,213,29,51,242,218,43,17,225,24,254,41,23,254,32,241,235,188,9,229,250,51,255,6,223,237,27,15,204,54,247,25,222,249,11,248,6,1,11,204,251,26,39,237,211,202,27,250,203,10,16,251,249,230,47,36,50,239,43,16,0,229,227,33,42,31,21,39,243,235,225,231,211,215,212,31,44,230,198,28,228,235,66,209,15,195,24,3,45,205,13,44,28,248,3,22,44,51,11,9,245,34,25,223,222,56,216,47,251,241,212,243,41,230,5,18,55,226,23,33,57,212,206,235,31,216,92,12,42,69,254,255,222,61,21,31,74,219,11,255,218,245,27,59,65,244,248,49,152,173,51,244,16,248,13,17,225,64,216,26,39,211,14,37,217,192,214,237,32,242,217,202,232,234,204,28,33,6,33,231,51,46,211,219,30,233,27,30,69,4,31,45,233,8,0,29,225,217,244,254,67,15,47,50,212,255,252,8,208,54,72,60,215,49,232,37,30,40,203,246,58,225,33,215,211,215,58,254,61,4,30,17,41,232,248,220,231,7,18,226,235,50,237,221,51,41,58,204,4,25,49,244,35,4,210,234,50,0,228,218,30,3,233,21,200,204,57,44,44,250,209,192,7,210,244,37,219,9,190,25,21,47,19,249,191,16,7,214,51,244,39,29,251,50,199,251,236,40,45,224,255,18,52,39,223,18,31,2,30,25,13,2,204,26,206,7,239,216,39,215,213,220,41,8,40,28,15,216,31,242,248,49,51,49,225,35,10,230,28,49,220,9,59,71,214,8,43,252,12,20,19,223,216,217,255,12,16,231,232,39,62,183,213,19,248,62,242,5,185,50,177,243,16,255,15,214,34,41,5,47,3,223,18,216,63,246,55,234,6,14,0,46,49,237,43,250,12,217,1,41,45,216,0,24,230,59,219,42,59,46,59,16,35,66,227,242,249,42,18,45,31,225,23,36,235,68,226,194,207,52,193,243,217,2,67,251,7,18,5,222,37,27,20,55,25,30,244,184,21,34,228,230,31,206,32,4,192,209,221,22,29,223,38,10,218,206,8,238,50,213,32,15,250,22,49,193,21,17,224,240,228,193,37,229,201,213,10,21,33,213,242,39,23,236,235,40,3,2,245,44,7,20,210,27,209,32,49,228,247,234,61,234,40,13,22,230,52,11,251,7,245,226,38,234,94,203,222,39,97,7,217,248,237,57,194,32,66,48,16,28,245,227,53,228,28,13,201,212,6,3,5,220,56,251,44,31,38,186,208,10,10,28,202,22,41,0,226,19,48,228,48,230,72,32,20,6,241,229,46,39,217,251,35,240,8,39,48,220,225,54,49,32,245,31,27,216,67,205,198,221,36,245,3,40,243,231,46,33,53,13,19,243,58,246,216,20,45,52,57,240,5,205,25,64,249,215,46,224,25,239,246,15,39,55,216,46,19,68,25,44,228,38,17,226,17,46,202,46,4,197,212,23,185,218,192,3,23,213,233,48,229,44,42,5,8,219,52,204,249,36,211,15,59,239,10,236,7,207,43,37,28,251,63,67,231,215,57,42,222,238,218,58,75,232,209,52,218,225,50,221,29,218,222,255,255,4,0,0,0,0,18,0,0,76,101,75,65,149,63,223,86,221,104,216,96,29,238,196,65,90,94,23,36,1,242,249,241,248,212,191,15,66,44,228,246,254,254,211,222,38,229,226,162,32,16,64,19,41,21,208,255,20,55,32,50,67,12,242,240,221,220,38,116,94,219,233,99,33,24,123,45,48,67,75,175,182,194,4,8,98,25,1,222,43,213,86,93,7,9,184,174,1,1,250,38,45,24,216,12,47,11,202,229,219,235,197,250,23,65,217,127,27,5,243,242,65,210,60,197,61,83,194,33,8,25,226,114,217,30,200,81,18,237,1,32,210,62,11,65,67,71,7,77,21,225,15,36,23,127,235,29,206,40,48,198,251,233,216,55,253,20,59,5,45,55,248,29,2,63,29,218,82,218,39,40,23,203,4,6,224,33,50,51,37,41,242,33,227,51,243,208,32,230,61,5,231,226,39,82,167,246,225,174,247,29,1,23,60,209,18,170,186,41,16,244,42,38,43,16,27,30,9,177,180,15,221,218,16,27,248,226,8,228,46,234,67,10,176,242,237,246,5,192,6,215,51,240,44,67,41,22,244,29,8,42,220,222,206,53,171,182,61,27,20,48,30,18,167,212,241,242,231,253,245,206,39,62,232,210,24,2,208,24,31,20,245,63,28,66,247,209,200,42,51,45,178,50,2,10,227,60,15,53,21,0,204,42,250,245,30,238,222,247,255,230,211,62,225,49,228,0,199,15,57,244,199,163,225,225,209,8,241,218,171,36,146,37,146,8,65,255,163,195,221,196,48,66,221,249,188,21,19,228,32,255,50,215,225,235,29,2,48,22,227,184,201,252,8,18,23,232,2,64,200,240,211,19,31,40,21,218,232,241,63,233,7,231,95,127,185,226,232,218,7,91,59,193,253,102,237,6,15,120,62,54,253,8,4,215,77,54,63,225,34,60,63,25,235,76,15,51,236,25,24,242,49,196,12,8,37,208,13,198,22,254,244,3,95,8,224,219,202,69,34,254,63,210,201,247,72,238,236,52,1,49,253,99,226,30,78,77,29,13,172,79,184,7,38,60,222,193,235,17,44,9,43,64,197,106,188,246,186,231,38,22,78,247,34,123,219,235,16,115,235,81,14,69,31,179,226,230,60,220,62,211,80,212,224,221,64,29,65,60,45,223,143,168,31,198,49,219,48,71,165,70,5,148,228,243,216,166,222,197,46,63,223,60,184,42,21,209,33,53,239,229,41,203,58,127,173,50,237,166,254,81,2,213,56,54,10,230,73,52,71,72,179,233,42,4,190,59,8,199,224,13,48,53,254,121,127,75,27,60,203,35,15,75,14,57,232,74,32,243,14,108,69,249,234,58,217,31,31,241,32,24,7,235,254,6,22,30,52,59,245,70,231,235,44,6,13,18,245,20,41,53,45,22,71,14,80,61,65,235,87,34,200,229,63,12,53,8,58,248,233,10,249,0,52,87,243,231,183,245,21,234,37,183,17,232,43,0,247,58,231,17,217,219,45,60,8,46,10,54,199,33,10,40,217,45,228,20,193,76,73,41,200,72,229,69,254,25,246,235,212,41,229,245,213,9,240,5,234,230,43,47,227,242,34,13,8,8,221,203,250,47,245,217,232,66,217,230,32,36,181,0,76,253,240,98,208,210,217,218,27,222,0,27,25,169,67,27,17,40,203,46,37,11,83,4,254,226,12,5,11,10,87,9,221,63,37,237,41,47,79,50,7,23,254,13,22,74,235,33,177,10,220,10,197,30,45,97,180,229,4,224,158,79,15,245,27,71,165,238,173,49,15,65,17,4,51,234,223,36,30,225,44,64,7,4,227,5,28,9,237,0,241,216,29,232,127,66,150,28,188,224,249,115,6,226,203,97,29,213,242,42,73,42,240,251,243,232,49,74,2,175,246,116,62,56,16,75,53,221,1,236,32,255,16,230,243,245,24,22,24,88,4,18,160,193,5,21,66,252,51,193,233,38,250,255,248,252,18,247,204,220,16,14,229,34,232,244,232,217,236,199,50,242,227,203,220,41,236,203,23,6,248,48,225,6,39,6,23,16,209,245,9,39,22,195,90,184,95,96,41,246,48,25,7,28,211,9,31,221,20,216,93,207,104,26,33,19,61,251,23,249,58,215,211,214,224,33,127,247,81,228,8,245,77,225,20,15,72,29,244,252,39,230,161,39,191,27,233,64,11,180,244,80,27,19,229,227,2,74,170,71,219,21,55,18,219,59,220,70,232,253,222,248,234,0,36,252,247,48,78,34,15,7,237,31,27,30,74,224,88,48,57,7,23,48,208,56,3,25,227,65,7,58,28,171,35,250,4,10,30,68,10,27,48,192,231,227,224,17,244,211,208,213,230,39,231,5,222,12,64,231,6,249,64,219,72,60,16,131,127,238,75,96,227,159,25,251,215,2,32,23,83,25,36,232,121,202,45,9,208,222,241,241,253,191,231,34,68,45,249,52,19,177,23,56,13,198,239,11,14,28,240,60,167,32,208,64,228,28,51,9,41,18,26,16,213,225,30,186,35,8,249,43,54,12,10,23,241,23,28,26,57,253,1,42,33,34,24,40,84,228,70,25,244,28,89,43,44,27,9,87,88,246,223,42,236,21,185,69,249,26,253,93,208,225,42,127,4,11,19,54,19,187,64,4,77,186,240,79,31,202,51,210,28,235,168,217,23,192,45,178,59,252,15,220,87,202,73,21,213,208,94,5,79,66,58,243,211,167,57,27,0,237,60,237,60,186,3,232,56,45,190,209,192,208,251,53,236,189,42,242,96,217,98,83,250,47,216,233,246,248,218,56,245,242,5,70,15,1,228,69,232,55,196,176,21,37,209,201,209,250,211,213,234,186,79,235,177,228,227,148,53,47,180,19,44,211,27,202,213,173,215,242,248,237,6,192,249,43,52,236,34,247,19,191,10,31,194,54,171,24,191,46,25,220,229,105,252,8,15,23,58,25,184,29,61,8,54,199,230,243,225,90,233,190,244,27,206,250,73,35,71,34,25,0,65,57,13,203,63,217,228,197,3,58,54,70,38,40,59,178,255,195,47,27,68,199,41,249,189,38,236,249,24,82,32,61,223,26,12,242,210,34,37,208,18,29,183,254,255,46,83,68,107,13,188,21,166,106,7,229,245,216,65,203,127,96,246,190,229,32,29,210,34,185,186,226,227,228,21,219,14,76,76,143,137,10,51,4,23,154,45,146,17,24,63,16,16,21,38,209,25,243,80,21,79,67,62,13,223,236,239,187,40,35,87,246,8,250,72,140,201,76,6,148,129,206,220,33,16,93,9,189,236,41,33,222,183,47,6,173,184,215,45,195,60,164,44,182,31,33,46,130,226,34,53,254,51,84,205,212,69,92,177,216,81,49,135,23,146,91,201,190,12,26,201,192,36,36,217,193,187,29,212,251,229,248,242,30,220,191,33,23,66,221,157,189,0,70,223,166,219,255,193,73,239,233,212,218,26,46,201,206,240,198,206,228,226,226,75,170,70,248,56,195,35,28,213,194,207,218,178,233,30,1,76,244,250,189,215,195,205,6,250,245,16,217,15,194,237,67,7,168,36,252,20,56,188,16,160,214,116,73,40,34,7,89,75,124,25,192,179,6,233,95,60,64,205,66,169,60,175,60,165,246,235,240,234,211,177,245,71,18,58,229,32,57,20,15,86,181,139,167,149,19,40,169,248,239,84,17,252,248,170,247,221,191,238,5,226,155,191,3,210,26,143,164,81,200,237,193,229,166,165,44,206,129,94,85,31,230,245,57,86,235,41,161,212,15,47,56,178,243,88,210,243,53,249,38,28,68,180,17,49,15,65,233,197,253,23,244,134,69,213,52,166,241,16,23,147,89,111,19,162,193,153,40,81,55,181,213,53,96,180,90,46,21,86,86,9,232,28,15,227,68,88,13,205,61,2,65,240,66,37,207,38,206,49,200,49,164,189,247,31,45,33,210,234,58,197,183,22,212,20,197,67,7,192,253,51,202,28,219,227,164,44,17,201,52,219,92,190,29,9,245,29,35,10,59,202,230,248,59,208,186,24,30,248,209,61,71,230,7,37,223,253,38,250,14,185,129,23,43,49,44,219,8,230,47,29,47,234,230,24,39,255,5,29,180,42,3,182,220,22,1,4,8,251,66,26,219,204,35,247,5,4,251,202,17,57,159,206,225,222,155,200,40,243,5,223,20,202,223,21,235,244,213,232,228,0,236,145,190,24,220,33,68,7,220,245,210,250,141,16,39,41,202,204,203,39,55,220,36,213,53,252,222,242,240,255,74,220,3,105,240,32,86,184,71,245,242,73,72,16,127,235,16,42,70,232,7,63,72,132,19,181,223,245,48,209,211,245,175,242,245,26,10,28,78,183,45,219,11,79,106,224,9,206,217,205,33,251,26,45,103,212,5,224,193,215,61,249,4,14,2,180,230,51,240,196,240,226,13,210,111,19,5,248,9,41,22,39,112,2,67,228,205,196,222,219,79,41,243,218,10,223,239,42,57,31,63,15,182,13,233,195,91,246,203,252,51,29,237,16,7,60,97,200,31,207,220,178,10,91,54,201,20,215,182,18,66,3,109,24,40,41,167,250,176,10,232,250,47,224,160,219,244,241,22,239,48,29,7,238,185,203,34,26,242,13,213,76,251,156,195,43,43,14,37,62,170,18,28,66,186,246,237,234,232,252,3,55,235,204,45,212,17,228,79,10,201,46,70,14,0,228,3,255,187,55,98,103,114,23,90,150,104,184,89,255,225,225,196,103,196,119,72,13,224,19,24,250,3,219,215,181,230,176,241,105,78,22,68,250,209,19,13,253,193,242,143,236,129,14,188,96,253,50,252,233,251,226,21,104,226,110,231,3,15,39,255,238,219,254,211,43,80,10,222,58,248,245,248,234,29,215,198,26,13,225,234,242,80,28,6,43,34,242,255,13,251,221,55,199,50,250,32,233,5,12,204,54,234,49,49,59,222,242,13,9,186,68,180,54,8,251,224,10,23,245,216,56,236,20,79,161,7,13,133,43,14,39,175,243,16,230,17,29,246,56,7,214,8,254,201,9,19,9,227,21,245,30,204,99,28,235,252,127,251,48,2,237,187,21,13,0,253,248,5,16,185,215,23,83,7,11,61,50,220,46,221,56,182,67,236,228,190,221,237,63,29,55,249,58,218,27,226,66,235,77,210,3,201,212,2,39,38,46,251,229,26,186,254,52,201,41,20,206,181,165,212,221,219,17,11,189,19,22,6,15,226,222,247,238,207,183,197,41,212,41,226,13,245,19,164,8,190,42,165,229,204,248,217,182,233,86,117,18,56,219,61,228,251,203,231,17,69,246,51,27,189,69,21,64,12,249,66,218,85,150,62,231,72,50,234,55,177,56,41,63,56,45,233,224,237,227,85,176,3,70,67,223,27,10,252,47,127,116,59,3,92,24,73,254,92,100,10,205,76,224,245,235,24,79,4,40,18,54,90,222,46,229,199,240,71,59,22,38,16,32,240,233,214,233,34,243,160,65,47,222,13,37,188,235,69,207,218,214,28,39,31,44,2,238,58,11,17,224,239,6,40,16,44,23,246,33,52,63,28,248,240,52,13,247,7,253,5,7,19,53,45,58,4,44,220,63,7,193,195,127,181,84,85,14,248,87,34,47,232,238,253,67,18,249,56,60,161,25,45,237,230,44,244,60,204,243,233,46,242,13,5,253,44,231,46,234,16,25,28,51,233,63,225,218,193,50,83,216,22,222,18,238,40,241,65,57,49,5,232,225,22,232,40,45,76,24,42,17,12,27,23,205,45,23,50,11,241,212,40,26,19,54,247,0,212,248,64,215,244,229,46,20,225,212,38,221,21,188,234,255,190,148,10,185,80,216,51,250,237,220,39,6,69,28,6,56,10,196,226,11,21,247,219,237,198,52,63,236,25,62,12,197,55,17,34,220,248,237,6,136,249,13,40,109,70,9,24,206,230,17,217,198,25,48,204,67,41,253,229,230,62,253,103,64,82,226,86,129,38,210,7,66,19,188,191,218,29,62,48,22,97,200,31,129,42,149,97,246,21,165,8,244,222,212,21,26,65,16,60,34,48,230,60,35,21,196,8,255,227,9,231,53,241,30,30,48,244,15,207,252,69,209,93,244,174,238,30,7,6,57,34,89,73,249,210,7,39,225,220,24,15,2,39,31,18,220,76,1,34,255,13,30,222,233,33,31,205,255,6,70,14,245,221,32,13,239,43,12,13,248,81,224,10,70,2,37,27,236,190,66,17,35,17,33,77,41,28,3,181,42,211,223,164,1,243,40,18,89,33,22,4,253,18,227,19,201,231,213,231,185,230,192,20,53,20,5,29,237,201,203,201,17,237,248,67,200,66,174,53,217,20,198,196,30,252,113,32,30,148,189,29,17,246,13,17,1,129,170,220,67,57,68,206,243,215,218,165,75,199,232,248,32,238,192,14,24,32,48,4,255,192,206,247,37,201,49,10,45,204,247,26,172,24,250,4,237,14,214,248,60,111,232,254,237,238,91,199,91,69,254,225,204,8,38,49,38,85,211,9,228,107,16,24,226,42,196,253,216,45,41,69,214,107,34,44,57,60,214,13,37,251,107,116,89,200,149,164,127,217,100,240,23,241,0,239,202,244,67,38,85,192,171,202,248,207,20,181,31,51,9,50,42,36,195,184,234,48,34,237,22,21,40,13,45,215,59,237,12,93,184,241,199,98,3,225,151,49,36,3,48,215,8,87,233,242,217,160,57,52,43,213,9,11,41,78,234,23,22,229,9,22,249,247,244,182,222,201,244,26,33,26,5,250,12,215,87,243,200,87,29,13,255,60,219,240,210,46,198,36,45,205,22,234,19,4,214,52,11,7,26,237,34,8,230,230,55,17,18,65,225,13,21,230,23,42,44,62,31,17,249,6,127,18,206,213,36,223,56,57,15,244,39,70,40,56,255,66,68,42,11,211,30,216,61,25,251,243,74,27,12,232,240,64,232,233,253,56,20,5,36,199,202,229,61,219,220,253,5,211,48,243,6,18,188,221,235,241,221,220,208,233,45,239,64,42,77,27,176,0,236,240,25,70,239,19,246,65,232,253,254,69,27,55,221,235,185,244,249,81,39,5,174,56,223,250,218,102,148,219,38,234,229,251,245,171,245,33,248,155,225,65,217,241,229,238,42,78,226,83,254,52,64,41,11,20,27,16,3,62,83,60,67,63,179,47,249,63,60,73,58,12,26,9,6,19,62,36,200,50,146,205,149,247,59,81,183,66,4,183,151,48,248,5,243,78,129,12,7,208,255,249,214,33,225,211,228,72,234,255,71,243,181,54,176,171,231,42,253,205,37,215,224,248,17,96,10,202,16,251,34,59,82,17,2,212,10,219,80,90,55,11,40,199,223,6,52,38,24,184,211,75,74,196,9,87,246,45,251,172,224,20,245,57,33,215,211,41,182,220,216,4,194,247,162,191,69,227,45,96,57,26,231,247,193,90,250,233,45,42,204,157,110,242,66,125,65,17,203,50,188,13,246,87,70,15,238,38,82,29,25,85,54,240,7,58,249,216,247,55,129,222,232,57,242,72,249,190,4,202,37,161,92,36,67,131,13,50,3,41,182,80,216,26,86,4,234,236,15,107,246,38,89,57,60,26,181,92,235,22,65,22,222,19,1,58,47,70,238,42,187,9,59,202,72,210,22,227,25,81,242,214,3,239,230,32,45,216,100,200,52,237,194,3,77,249,47,18,84,221,195,222,62,45,28,254,38,161,234,62,226,187,233,221,44,140,237,189,4,44,225,27,39,159,210,23,68,130,201,14,14,217,208,1,38,35,249,211,37,38,35,215,39,163,224,196,33,213,207,229,49,23,84,2,52,203,214,195,244,163,248,233,254,163,239,69,228,132,147,16,190,94,17,26,187,105,129,42,151,35,60,56,191,131,16,10,233,68,94,1,132,11,12,7,247,64,83,92,220,178,6,67,9,90,54,229,186,37,250,224,89,29,180,45,23,226,249,191,33,27,223,174,6,2,100,218,95,145,197,26,48,33,6,221,35,202,228,218,47,254,237,14,99,151,13,66,34,61,75,87,235,15,252,34,110,162,7,240,62,208,67,206,35,218,28,211,246,72,237,22,252,51,7,6,217,249,55,202,48,47,238,68,23,85,20,22,9,229,45,59,36,37,1,40,240,24,228,206,12,51,210,13,16,0,240,65,24,49,89,2,225,232,107,194,64,92,199,129,84,81,241,1,76,107,232,16,40,154,40,245,237,32,144,172,80,28,255,28,236,38,3,178,38,215,18,199,21,64,247,254,78,48,226,228,210,9,157,251,0,9,220,34,214,239,69,237,60,203,214,236,68,11,250,82,185,215,176,246,224,53,92,229,13,82,227,236,225,5,246,76,227,18,16,175,27,35,218,205,201,99,65,240,210,42,71,5,29,239,218,223,9,246,37,32,227,18,53,195,249,63,219,44,236,242,32,212,43,20,231,238,50,237,60,206,21,249,234,199,7,0,56,3,60,252,14,220,2,230,51,20,234,226,17,246,245,208,119,215,116,26,231,232,33,46,82,35,31,237,21,23,25,147,71,244,23,12,45,228,77,32,175,69,239,55,44,25,251,162,73,7,70,69,35,171,249,3,238,38,224,40,129,254,106,32,234,16,243,197,31,71,92,239,1,7,250,131,175,227,35,78,234,92,15,19,214,22,14,235,208,64,21,192,217,244,32,52,213,43,43,25,242,239,249,7,230,24,23,188,135,199,78,22,32,84,26,144,235,11,24,247,38,255,26,144,219,152,86,42,18,208,245,236,240,59,29,216,48,213,70,30,195,218,241,29,26,49,37,215,52,215,51,245,20,207,80,4,6,79,246,216,200,243,18,85,61,80,135,231,179,252,188,23,72,253,231,129,210,182,7,108,39,35,195,254,217,85,25,234,65,33,239,152,38,206,201,254,54,222,9,35,178,63,23,55,19,245,41,7,7,213,24,21,36,214,4,151,60,246,35,193,9,246,59,224,27,191,220,216,81,211,42,233,245,34,21,245,245,241,236,255,15,41,2,41,211,253,54,150,214,22,23,220,37,129,64,221,75,246,240,28,200,24,21,220,222,48,249,200,231,200,11,23,245,0,34,238,220,53,219,219,244,240,18,39,236,19,212,240,221,13,253,208,55,207,5,254,70,17,75,215,58,246,239,197,59,83,51,52,236,230,84,43,216,2,17,21,80,235,28,18,49,16,247,6,38,53,247,33,248,237,212,17,55,48,231,73,196,7,204,24,233,61,245,0,18,223,38,25,24,9,197,23,175,243,27,35,40,202,213,205,43,210,31,79,75,21,198,1,198,223,37,14,93,202,11,4,56,242,249,28,3,27,241,37,32,31,40,6,23,11,245,245,14,216,14,247,168,10,17,41,28,29,44,176,235,40,182,239,230,245,21,230,232,153,65,60,49,34,62,191,6,47,64,183,214,6,207,28,1,20,238,225,230,59,3,17,240,45,49,162,214,244,8,244,246,55,213,231,56,203,243,72,231,254,246,229,220,119,155,214,197,19,213,129,123,203,9,72,53,71,249,214,136,28,146,23,37,196,42,220,236,4,243,14,4,25,19,226,172,238,140,25,243,54,11,63,20,243,59,2,3,49,77,32,29,216,27,207,48,36,179,2,215,32,13,67,29,66,235,213,252,15,13,20,61,54,249,14,175,237,165,85,91,57,189,222,248,25,4,58,41,8,39,80,25,221,234,85,72,229,43,61,213,54,240,74,41,1,10,12,252,56,225,67,46,226,38,250,243,59,210,52,51,226,220,73,47,18,209,34,4,24,222,73,4,242,2,29,162,24,69,66,13,246,77,171,201,6,63,225,47,191,247,245,27,2,30,18,220,35,34,15,33,2,22,9,56,221,219,3,38,237,59,214,23,187,243,20,241,2,225,8,79,202,60,51,194,157,15,62,201,73,174,224,4,34,205,163,195,196,240,129,245,58,217,251,248,245,250,66,21,230,45,26,48,36,28,209,216,59,15,1,9,247,93,249,70,218,95,56,91,194,25,50,20,40,53,67,232,7,235,250,246,26,14,250,48,33,62,38,37,1,217,24,192,21,193,227,59,39,239,66,213,27,220,230,39,36,16,40,247,251,31,251,27,229,32,41,230,211,38,25,241,53,235,250,129,25,146,252,237,39,179,60,190,193,20,16,24,243,214,36,170,184,209,2,14,67,190,245,228,52,206,12,16,237,232,231,179,203,191,202,12,44,203,244,156,38,185,26,78,19,182,226,57,255,22,43,189,214,41,84,45,195,42,36,235,192,13,22,65,227,56,198,235,170,72,45,7,174,0,59,24,38,195,20,47,13,64,234,255,243,250,74,45,8,233,61,230,240,255,255,4,0,0,0,64,2,0,0,112,68,173,62,57,7,223,61,35,123,136,190,9,46,23,190,32,233,143,189,199,51,102,62,122,195,213,190,194,207,176,190,107,137,249,189,129,150,148,189,183,117,218,61,213,229,12,190,144,139,53,62,173,185,59,190,30,134,81,189,139,157,208,190,205,156,129,190,188,184,44,190,104,66,22,190,135,154,219,189,59,105,168,61,38,205,130,61,187,212,66,62,113,140,79,62,93,65,212,62,115,97,135,62,71,247,194,62,81,103,22,190,206,129,20,190,8,8,114,190,2,241,33,62,2,32,159,62,123,228,86,62,15,45,171,189,226,112,12,188,169,208,122,189,106,188,219,189,54,147,143,189,64,106,157,189,248,235,210,190,31,221,154,190,9,65,141,187,48,183,14,62,121,154,155,62,6,104,181,62,69,118,98,190,94,162,31,62,165,108,69,62,118,179,61,62,133,249,173,189,202,159,183,186,215,117,174,62,242,87,6,61,251,189,129,190,181,26,179,189,198,33,58,61,66,252,133,190,2,190,19,190,103,201,142,190,209,126,66,190,232,121,180,61,91,225,17,62,81,62,128,62,10,26,131,60,130,209,144,62,225,116,38,62,169,163,82,62,101,120,97,61,185,117,225,189,81,55,148,190,161,170,216,190,82,135,179,190,153,68,216,189,192,47,33,62,94,135,72,190,177,21,149,62,64,14,38,62,82,156,107,189,184,49,179,190,30,127,87,190,92,207,155,189,0,189,210,189,192,144,177,60,251,237,118,61,202,29,145,62,199,123,196,62,89,179,120,62,166,235,148,189,55,231,228,61,56,114,10,190,92,46,28,190,208,203,53,190,179,57,37,190,135,53,104,190,203,184,72,189,18,27,166,189,69,26,140,62,110,23,48,62,26,8,157,62,98,215,172,62,91,63,93,62,77,247,244,188,68,19,150,190,114,128,108,190,249,97,179,190,176,51,73,190,118,166,180,190,116,9,61,60,232,251,124,188,2,123,42,190,153,182,132,190,103,180,141,61,247,185,17,190,222,231,49,60,20,193,44,189,244,174,166,189,199,47,1,189,253,249,232,189,130,50,80,61,229,179,166,62,81,146,120,62,192,11,52,62,99,167,45,190,142,145,157,190,245,116,1,190,18,89,42,62,139,130,37,190,106,111,1,190,82,86,96,190,43,43,136,189,186,15,24,189,224,14,207,189,202,227,215,189,175,221,183,187,229,132,132,190,168,149,155,62,124,114,138,62,223,148,139,189,82,100,46,190,11,231,200,189,32,100,152,188,106,132,45,190,83,161,177,190,186,155,123,190,50,243,255,255,4,0,0,0,128,0,0,0,94,215,86,60,134,2,179,60,154,17,24,60,12,85,6,60,180,71,247,59,112,53,246,187,76,2,218,59,178,187,172,60,219,208,20,189,30,209,138,60,172,96,76,60,83,35,18,188,159,87,69,188,0,186,222,59,213,49,80,61,143,157,176,60,220,82,158,187,214,230,169,59,83,111,173,59,141,111,82,60,92,73,97,59,199,99,45,60,67,50,70,60,97,227,4,61,36,47,249,60,191,27,14,189,179,96,11,60,133,80,170,60,90,153,242,59,145,57,102,60,124,25,204,188,237,227,20,60,190,243,255,255,4,0,0,0,64,0,0,0,154,158,90,61,185,102,85,61,168,194,214,61,212,169,226,61,135,159,178,61,199,201,140,61,212,255,185,61,39,93,169,61,178,116,33,61,250,115,29,61,67,246,144,61,47,123,161,61,28,202,70,61,196,171,93,60,105,178,220,61,6,101,102,61,10,244,255,255,4,0,0,0,0,1,0,0,169,226,13,60,142,173,3,187,10,163,118,188,190,53,96,188,148,49,137,188,130,177,156,60,145,66,70,187,28,116,7,61,237,216,42,188,149,161,187,60,111,108,205,60,119,201,63,188,223,129,74,60,120,62,19,188,67,30,121,187,99,6,119,188,129,174,71,60,73,128,17,61,108,137,42,60,69,217,242,57,71,128,152,60,242,164,32,61,59,42,136,59,235,99,178,59,0,0,0,0,52,104,133,188,95,2,174,60,200,132,229,60,213,244,35,61,230,102,129,61,239,225,13,188,167,181,145,188,171,158,39,59,125,215,6,188,138,18,139,59,64,230,142,60,23,4,190,60,144,236,253,59,174,78,187,188,63,221,95,60,224,248,64,61,0,22,33,61,199,247,47,57,147,186,134,59,205,192,157,60,137,112,132,187,105,219,77,188,59,5,255,60,208,184,11,188,72,53,211,188,14,104,154,188,9,152,181,187,95,205,244,59,141,61,111,60,242,33,185,60,188,118,74,188,223,120,184,60,152,133,220,60,67,195,23,188,0,0,0,0,51,255,196,59,34,206,188,58,55,152,73,60,228,16,250,60,22,245,255,255,4,0,0,0,40,0,0,0,113,105,31,187,189,201,196,188,250,112,145,188,107,115,13,60,7,6,143,188,206,49,16,185,38,135,42,60,237,216,251,60,105,46,18,188,206,170,145,60,74,245,255,255,4,0,0,0,8,0,0,0,255,255,255,255,192,0,0,0,94,245,255,255,4,0,0,0,0,10,0,0,201,111,43,62,107,77,125,62,201,167,57,62,103,151,236,187,225,231,30,62,157,35,110,61,35,89,57,62,242,90,210,190,235,79,17,190,218,95,176,189,137,184,67,190,3,125,79,189,115,23,240,61,139,132,158,189,230,200,130,189,187,95,37,190,132,104,230,61,212,41,3,190,77,50,82,190,235,181,151,190,134,194,191,61,61,14,51,190,162,86,29,61,117,223,177,189,132,239,67,62,152,243,73,190,247,144,173,190,12,2,154,62,129,153,103,62,213,122,140,61,169,52,134,62,223,11,165,189,52,62,26,62,167,184,114,190,234,246,152,61,87,178,133,62,178,111,41,61,34,186,240,189,120,33,56,190,19,170,244,61,16,140,13,62,85,201,165,61,56,147,86,62,155,231,169,190,105,106,184,62,229,12,163,189,36,182,54,190,131,47,94,62,134,95,0,61,129,56,169,60,172,84,115,190,73,42,148,189,122,107,72,62,83,184,173,190,204,246,183,190,175,190,79,62,221,180,48,188,227,181,15,190,44,1,103,190,66,36,67,190,41,114,24,190,81,111,97,190,81,83,250,61,22,184,22,61,135,92,144,189,226,39,141,62,236,100,201,61,130,211,52,190,42,158,131,62,151,35,176,190,148,255,76,189,154,37,206,60,164,131,178,61,131,124,97,190,172,121,184,190,20,62,131,189,170,216,148,189,147,178,6,189,231,33,193,61,232,161,107,190,243,91,104,61,191,18,67,62,32,42,72,190,212,204,100,60,180,64,145,61,140,174,59,190,87,27,30,190,169,219,32,62,254,87,13,62,224,92,115,189,183,173,140,61,244,148,109,62,82,90,12,190,45,172,171,187,57,198,65,62,167,246,68,62,53,74,206,190,253,200,77,190,63,190,209,188,215,57,205,190,146,203,186,190,94,91,129,61,189,122,151,62,31,239,97,61,255,97,154,189,104,175,1,60,142,100,173,62,199,96,58,189,97,94,11,60,51,46,106,62,34,72,98,190,43,65,80,62,135,246,181,62,154,43,170,61,185,142,117,190,144,84,150,61,226,170,94,190,87,104,0,62,27,24,22,62,249,51,147,61,179,64,166,62,146,202,97,62,83,48,164,189,200,183,27,189,166,181,170,189,216,90,4,62,52,174,139,62,188,254,25,190,191,88,96,62,166,120,26,190,185,112,138,61,39,205,177,61,177,25,47,62,138,114,114,60,63,22,136,62,158,40,235,189,147,125,84,190,87,118,47,62,58,78,98,62,117,240,145,62,21,150,166,190,206,227,214,62,1,240,254,61,116,38,151,189,144,145,103,62,183,191,176,61,73,227,145,62,54,228,211,190,113,44,177,189,254,61,137,189,78,35,35,62,230,94,69,190,190,175,121,62,110,63,144,190,198,60,58,62,228,198,202,189,136,11,53,61,248,241,23,190,187,238,100,62,34,108,248,61,209,112,86,62,49,6,173,61,59,118,187,188,147,192,0,190,39,176,20,190,155,195,139,190,51,30,93,188,247,122,2,190,127,0,160,59,14,21,202,190,164,130,247,188,242,12,155,189,31,207,92,190,227,44,81,189,247,159,136,61,217,2,246,61,10,121,81,62,133,143,175,188,194,237,106,190,53,160,27,190,137,148,108,62,206,116,173,190,75,241,234,188,61,204,153,62,217,146,138,190,154,76,151,62,84,94,134,190,0,250,169,58,28,148,206,189,209,21,152,62,109,76,36,189,218,249,234,61,6,181,69,190,106,55,131,62,233,255,143,189,61,214,24,190,89,187,149,61,4,108,122,62,157,246,194,190,113,173,156,62,218,221,92,62,80,131,27,62,6,229,138,61,13,122,145,190,201,49,224,61,50,114,50,190,58,151,208,60,176,45,96,190,208,193,34,188,55,70,152,62,35,51,183,61,58,218,3,62,97,116,54,190,173,95,240,59,158,136,96,61,173,124,99,190,184,89,192,61,44,106,73,62,59,12,37,190,159,184,136,62,141,44,53,189,134,17,11,62,102,247,128,62,59,53,190,61,109,111,146,62,82,195,219,189,212,116,118,190,180,111,168,61,212,122,149,189,7,198,5,190,147,49,28,190,179,36,41,189,143,194,68,62,86,23,154,62,107,135,224,190,237,64,235,189,85,77,8,190,252,220,171,189,205,149,119,187,26,103,94,188,160,97,93,190,201,206,103,189,200,25,225,61,51,217,84,62,25,122,212,188,114,122,219,61,13,25,89,190,93,134,154,190,95,101,152,190,136,184,149,62,67,245,149,60,0,71,78,60,146,252,21,62,68,72,139,190,72,40,1,189,151,52,84,190,1,28,58,61,56,51,134,190,29,160,100,62,103,95,132,62,19,28,46,62,1,131,145,190,132,206,167,61,176,150,143,190,50,138,97,62,186,239,175,190,54,202,56,190,252,23,63,62,15,86,133,189,187,51,104,190,5,49,178,61,207,5,55,62,80,54,251,61,141,156,134,190,241,77,52,62,12,86,159,62,222,136,214,61,250,138,70,61,91,240,196,62,18,60,132,189,38,67,123,62,116,60,134,190,69,172,67,190,133,32,4,60,50,17,165,189,40,253,61,61,13,92,31,62,97,139,89,62,158,113,71,190,15,168,132,62,83,96,110,190,202,89,248,61,158,84,68,62,65,32,228,189,141,167,138,62,178,161,118,187,111,117,14,189,209,125,2,61,41,99,178,62,63,210,192,188,8,197,152,62,195,145,130,189,203,128,94,62,119,78,71,62,106,241,154,62,170,249,215,61,141,81,70,62,80,222,217,188,166,8,115,61,7,235,205,189,104,254,142,62,85,193,220,61,60,116,162,190,229,43,73,61,231,35,211,189,211,68,132,62,187,208,135,189,56,240,62,190,125,243,147,190,57,4,125,190,130,209,16,190,70,53,178,61,81,35,74,62,118,49,135,62,100,90,173,61,169,125,149,190,139,57,97,62,134,20,90,62,110,69,34,190,85,74,177,190,106,116,37,190,178,144,133,190,122,134,160,62,57,73,32,188,203,21,215,60,48,105,56,190,56,22,175,190,61,39,113,190,187,3,144,62,108,30,46,62,220,120,184,61,226,248,37,62,132,224,69,190,46,78,155,62,238,224,31,62,82,107,82,62,241,117,82,190,229,244,221,61,89,60,165,190,250,108,105,62,165,161,22,62,19,66,97,190,83,158,70,60,238,30,43,190,28,76,53,190,225,160,193,190,15,103,1,62,153,64,202,61,119,151,181,189,79,56,42,188,172,25,114,62,181,93,109,189,201,112,70,190,100,58,53,190,124,231,149,60,87,222,130,190,206,130,44,187,109,133,51,62,247,184,228,61,16,103,233,61,100,233,184,61,231,221,121,190,187,26,139,190,49,134,143,62,137,110,69,62,243,139,135,190,36,255,107,190,156,211,151,190,74,200,137,190,192,84,24,188,99,188,129,62,96,59,90,62,0,153,233,60,189,69,154,62,202,216,16,60,7,152,112,62,84,147,191,188,197,68,188,61,11,204,156,189,164,228,118,62,96,252,194,61,131,156,255,189,149,74,102,190,118,75,102,189,140,243,10,190,19,249,117,58,67,97,64,61,205,232,83,190,144,80,175,61,60,91,84,62,25,193,46,62,16,35,159,62,242,59,144,190,43,195,120,62,189,34,226,59,75,139,123,60,78,75,31,62,145,39,41,190,126,146,145,189,227,70,242,189,190,165,37,62,178,246,82,59,227,56,53,190,40,101,51,190,81,156,72,190,151,94,149,190,35,146,95,60,92,30,49,190,206,28,190,189,181,140,64,188,240,205,133,62,244,60,163,62,202,26,148,190,132,125,194,190,230,225,134,190,103,226,148,62,21,40,128,190,4,14,104,62,69,133,77,62,11,25,130,62,103,166,136,190,200,7,6,61,43,246,17,190,230,74,163,189,40,198,15,186,238,40,184,190,45,116,53,62,53,75,12,61,208,230,49,61,38,7,170,190,126,239,170,62,72,24,172,61,92,182,85,190,146,49,41,62,68,160,163,190,143,177,146,190,185,82,27,62,252,254,89,62,86,175,98,60,243,78,126,190,49,140,134,62,157,227,35,187,55,207,217,188,160,45,73,190,187,72,88,61,231,184,87,190,111,27,58,190,2,230,70,190,196,223,146,61,247,212,129,189,218,168,115,190,182,100,183,61,231,82,61,189,245,108,106,62,42,47,90,62,166,87,83,62,177,18,253,189,77,242,153,190,26,237,173,61,195,0,150,62,18,3,182,60,232,15,72,62,156,173,44,189,114,220,51,190,16,77,91,62,193,243,66,62,186,134,30,62,14,247,44,62,242,166,122,62,171,136,6,62,119,50,79,190,56,139,38,190,23,43,106,61,231,7,37,61,126,13,181,189,109,242,135,190,213,2,77,190,108,94,133,62,218,156,127,62,153,239,196,188,63,200,128,62,28,118,142,190,225,137,25,60,249,170,8,190,32,138,140,61,27,82,72,190,187,110,130,190,47,32,117,190,58,115,32,189,161,3,117,189,68,175,118,62,76,41,99,62,218,28,82,61,138,81,242,188,118,100,201,189,119,28,56,60,80,72,123,62,87,22,140,62,78,27,15,186,250,199,200,61,27,181,80,62,135,45,138,62,137,129,192,190,154,24,159,190,249,200,241,61,228,36,145,187,84,187,33,62,203,63,101,62,162,76,30,62,248,22,136,190,218,32,1,62,2,89,151,59,215,132,148,189,55,241,84,190,69,186,85,190,244,3,31,190,197,175,138,62,61,69,175,61,201,168,182,62,172,60,102,62,199,193,155,190,251,3,139,189,45,10,167,61,87,131,129,190,248,113,57,188,227,163,134,61,232,24,142,61,93,251,92,62,234,217,2,62,51,13,235,189,58,116,255,189,161,27,232,61,130,143,57,190,153,181,29,62,0,148,144,190,175,185,80,190,202,47,78,62,131,185,239,61,78,19,231,61,228,237,163,62,187,1,153,62,96,36,130,62,142,20,32,61,148,29,29,190,70,128,253,61,85,201,18,62,187,161,79,190,254,11,152,62,167,9,67,61,224,88,209,190,55,87,184,190,132,199,179,59,60,21,57,190,179,167,126,190,8,171,37,62,243,142,158,62,138,131,124,62,234,145,50,190,1,217,227,190,234,138,9,190,115,136,141,190,32,164,232,189,12,135,213,61,85,147,122,190,140,12,154,62,113,85,70,61,158,234,133,59,12,93,130,190,187,222,175,188,88,118,85,190,11,120,5,190,188,212,220,190,40,158,226,189,233,92,209,61,229,49,58,62,104,248,232,61,236,243,146,190,98,21,10,62,59,172,17,189,98,64,238,61,120,52,46,190,98,250,96,62,15,7,37,62,104,186,145,60,35,142,208,188,205,65,64,190,75,33,132,61,38,239,149,62,127,50,46,190,66,212,243,61,16,235,191,61,228,2,109,190,248,41,235,61,216,167,172,62,50,123,85,189,117,142,50,62,190,254,66,190,177,45,193,61,122,10,188,190,18,239,3,61,124,137,118,190,52,241,235,189,177,171,201,189,19,32,138,190,177,23,54,189,89,84,55,62,78,196,107,62,39,98,169,62,160,54,191,190,62,128,2,62,164,39,219,189,108,120,21,61,204,58,161,60,54,214,93,62,254,227,35,62,153,252,98,189,22,55,19,190,245,105,20,190,218,89,229,189,83,207,182,61,232,18,244,60,166,229,164,189,189,76,151,61,76,168,155,61,180,74,236,59,146,104,46,62,185,178,228,61,32,230,148,61,180,209,180,188,32,182,6,189,244,243,255,255,248,243,255,255,15,0,0,0,77,76,73,82,32,67,111,110,118,101,114,116,101,100,46,0,1,0,0,0,20,0,0,0,0,0,14,0,24,0,20,0,16,0,12,0,8,0,4,0,14,0,0,0,20,0,0,0,28,0,0,0,104,2,0,0,108,2,0,0,112,2,0,0,4,0,0,0,109,97,105,110,0,0,0,0,8,0,0,0,0,2,0,0,156,1,0,0,72,1,0,0,4,1,0,0,204,0,0,0,120,0,0,0,64,0,0,0,4,0,0,0,142,254,255,255,28,0,0,0,0,0,0,9,28,0,0,0,32,0,0,0,4,0,0,0,0,0,6,0,8,0,4,0,6,0,0,0,0,0,128,63,1,0,0,0,17,0,0,0,1,0,0,0,16,0,0,0,86,255,255,255,20,0,0,0,0,0,0,8,16,0,0,0,20,0,0,0,3,0,0,0,192,244,255,255,1,0,0,0,16,0,0,0,3,0,0,0,15,0,0,0,1,0,0,0,3,0,0,0,138,255,255,255,32,0,0,0,0,0,0,8,32,0,0,0,36,0,0,0,3,0,0,0,12,0,8,0,7,0,0,0,0,0,6,0,12,0,0,0,0,0,1,1,1,0,0,0,15,0,0,0,3,0,0,0,14,0,0,0,9,0,0,0,4,0,0,0,0,0,10,0,16,0,12,0,8,0,4,0,10,0,0,0,12,0,0,0,16,0,0,0,2,0,0,0,1,0,0,0,14,0,0,0,2,0,0,0,13,0,0,0,2,0,0,0,0,0,14,0,24,0,20,0,16,0,12,0,11,0,4,0,14,0,0,0,20,0,0,0,0,0,0,5,36,0,0,0,40,0,0,0,1,0,0,0,110,255,255,255,2,0,0,0,2,0,0,0,2,0,0,0,2,0,0,0,0,0,0,1,1,0,0,0,13,0,0,0,1,0,0,0,12,0,0,0,94,255,255,255,16,0,0,0,0,0,0,1,28,0,0,0,32,0,0,0,80,255,255,255,0,0,0,1,1,0,0,0,1,0,0,0,0,0,0,1,1,0,0,0,12,0,0,0,3,0,0,0,11,0,0,0,8,0,0,0,6,0,0,0,0,0,14,0,26,0,20,0,16,0,12,0,11,0,4,0,14,0,0,0,36,0,0,0,0,0,0,5,52,0,0,0,56,0,0,0,1,0,0,0,0,0,14,0,24,0,23,0,16,0,12,0,8,0,4,0,14,0,0,0,2,0,0,0,2,0,0,0,2,0,0,0,2,0,0,0,0,0,0,1,1,0,0,0,11,0,0,0,1,0,0,0,10,0,0,0,0,0,14,0,20,0,0,0,16,0,12,0,11,0,4,0,14,0,0,0,28,0,0,0,0,0,0,1,40,0,0,0,44,0,0,0,12,0,20,0,19,0,12,0,8,0,7,0,12,0,0,0,0,0,0,1,1,0,0,0,1,0,0,0,0,0,0,1,1,0,0,0,10,0,0,0,3,0,0,0,0,0,0,0,7,0,0,0,5,0,0,0,1,0,0,0,17,0,0,0,1,0,0,0,0,0,0,0,18,0,0,0,32,9,0,0,188,8,0,0,88,8,0,0,232,7,0,0,148,7,0,0,60,7,0,0,228,6,0,0,144,6,0,0,156,4,0,0,52,4,0,0,112,3,0,0,252,2,0,0,48,2,0,0,188,1,0,0,96,1,0,0,216,0,0,0,96,0,0,0,4,0,0,0,62,247,255,255,0,0,0,1,20,0,0,0,28,0,0,0,28,0,0,0,18,0,0,0,52,0,0,0,2,0,0,0,255,255,255,255,10,0,0,0,32,247,255,255,25,0,0,0,83,116,97,116,101,102,117,108,80,97,114,116,105,116,105,111,110,101,100,67,97,108,108,58,48,0,0,0,2,0,0,0,1,0,0,0,10,0,0,0,150,247,255,255,0,0,0,1,20,0,0,0,28,0,0,0,28,0,0,0,17,0,0,0,80,0,0,0,2,0,0,0,255,255,255,255,10,0,0,0,120,247,255,255,52,0,0,0,115,101,113,117,101,110,116,105,97,108,47,100,101,110,115,101,95,49,47,77,97,116,77,117,108,59,115,101,113,117,101,110,116,105,97,108,47,100,101,110,115,101,95,49,47,66,105,97,115,65,100,100,0,0,0,0,2,0,0,0,1,0,0,0,10,0,0,0,10,248,255,255,0,0,0,1,20,0,0,0,28,0,0,0,28,0,0,0,16,0,0,0,96,0,0,0,2,0,0,0,255,255,255,255,64,0,0,0,236,247,255,255,70,0,0,0,115,101,113,117,101,110,116,105,97,108,47,100,101,110,115,101,47,77,97,116,77,117,108,59,115,101,113,117,101,110,116,105,97,108,47,100,101,110,115,101,47,82,101,108,117,59,115,101,113,117,101,110,116,105,97,108,47,100,101,110,115,101,47,66,105,97,115,65,100,100,0,0,2,0,0,0,1,0,0,0,64,0,0,0,142,248,255,255,0,0,0,1,20,0,0,0,28,0,0,0,28,0,0,0,15,0,0,0,52,0,0,0,2,0,0,0,255,255,255,255,192,0,0,0,112,248,255,255,26,0,0,0,115,101,113,117,101,110,116,105,97,108,47,102,108,97,116,116,101,110,47,82,101,115,104,97,112,101,0,0,2,0,0,0,1,0,0,0,192,0,0,0,230,248,255,255,0,0,0,1,20,0,0,0,36,0,0,0,36,0,0,0,14,0,0,0,68,0,0,0,4,0,0,0,255,255,255,255,1,0,0,0,6,0,0,0,32,0,0,0,208,248,255,255,34,0,0,0,115,101,113,117,101,110,116,105,97,108,47,109,97,120,95,112,111,111,108,105,110,103,50,100,95,49,47,77,97,120,80,111,111,108,0,0,4,0,0,0,1,0,0,0,1,0,0,0,6,0,0,0,32,0,0,0,86,249,255,255,0,0,0,1,20,0,0,0,36,0,0,0,36,0,0,0,13,0,0,0,156,0,0,0,4,0,0,0,255,255,255,255,3,0,0,0,13,0,0,0,32,0,0,0,64,249,255,255,122,0,0,0,115,101,113,117,101,110,116,105,97,108,47,99,111,110,118,50,100,95,49,47,82,101,108,117,59,115,101,113,117,101,110,116,105,97,108,47,99,111,110,118,50,100,95,49,47,66,105,97,115,65,100,100,59,115,101,113,117,101,110,116,105,97,108,47,99,111,110,118,50,100,95,49,47,67,111,110,118,50,68,59,115,101,113,117,101,110,116,105,97,108,47,99,111,110,118,50,100,95,49,47,66,105,97,115,65,100,100,47,82,101,97,100,86,97,114,105,97,98,108,101,79,112,0,0,4,0,0,0,1,0,0,0,3,0,0,0,13,0,0,0,32,0,0,0,30,250,255,255,0,0,0,1,20,0,0,0,36,0,0,0,36,0,0,0,12,0,0,0,68,0,0,0,4,0,0,0,255,255,255,255,5,0,0,0,15,0,0,0,16,0,0,0,8,250,255,255,32,0,0,0,115,101,113,117,101,110,116,105,97,108,47,109,97,120,95,112,111,111,108,105,110,103,50,100,47,77,97,120,80,111,111,108,0,0,0,0,4,0,0,0,1,0,0,0,5,0,0,0,15,0,0,0,16,0,0,0,142,250,255,255,0,0,0,1,20,0,0,0,36,0,0,0,36,0,0,0,11,0,0,0,148,0,0,0,4,0,0,0,255,255,255,255,11,0,0,0,30,0,0,0,16,0,0,0,120,250,255,255,114,0,0,0,115,101,113,117,101,110,116,105,97,108,47,99,111,110,118,50,100,47,82,101,108,117,59,115,101,113,117,101,110,116,105,97,108,47,99,111,110,118,50,100,47,66,105,97,115,65,100,100,59,115,101,113,117,101,110,116,105,97,108,47,99,111,110,118,50,100,47,67,111,110,118,50,68,59,115,101,113,117,101,110,116,105,97,108,47,99,111,110,118,50,100,47,66,105,97,115,65,100,100,47,82,101,97,100,86,97,114,105,97,98,108,101,79,112,0,0,4,0,0,0,1,0,0,0,11,0,0,0,30,0,0,0,16,0,0,0,14,252,255,255,0,0,0,1,20,0,0,0,48,0,0,0,10,0,0,0,0,0,0,9,64,0,0,0,156,255,255,255,8,0,0,0,16,0,0,0,1,0,0,0,0,0,0,0,0,0,0,0,1,0,0,0,110,1,39,59,23,0,0,0,115,101,113,117,101,110,116,105,97,108,47,100,101,110,115,101,47,77,97,116,77,117,108,0,2,0,0,0,64,0,0,0,192,0,0,0,114,252,255,255,0,0,0,1,32,0,0,0,176,1,0,0,9,0,0,0,0,0,0,9,196,1,0,0,12,0,12,0,0,0,0,0,8,0,4,0,12,0,0,0,8,0,0,0,8,1,0,0,32,0,0,0,0,0,0,0,0,0,0,0,0,0,0,0,0,0,0,0,0,0,0,0,0,0,0,0,0,0,0,0,0,0,0,0,0,0,0,0,0,0,0,0,0,0,0,0,0,0,0,0,0,0,0,0,0,0,0,0,0,0,0,0,0,0,0,0,0,0,0,0,0,0,0,0,0,0,0,0,0,0,0,0,0,0,0,0,0,0,0,0,0,0,0,0,0,0,0,0,0,0,0,0,0,0,0,0,0,0,0,0,0,0,0,0,0,0,0,0,0,0,0,0,0,0,0,0,0,0,0,0,0,0,0,0,0,0,0,0,0,0,0,0,0,0,0,0,0,0,0,0,0,0,0,0,0,0,0,0,0,0,0,0,0,0,0,0,0,0,0,0,0,0,0,0,0,0,0,0,0,0,0,0,0,0,0,0,0,0,0,0,0,0,0,0,0,0,0,0,0,0,0,0,0,0,0,0,0,0,0,0,0,0,0,0,0,0,0,0,0,0,0,0,0,0,0,0,0,0,0,0,0,0,0,0,0,0,0,0,0,0,0,0,0,0,0,0,0,0,0,0,0,0,0,0,0,0,0,0,32,0,0,0,92,99,221,58,253,187,11,59,185,6,18,59,171,11,211,58,70,97,17,59,155,192,6,59,79,94,19,59,13,95,6,59,137,228,225,58,7,225,11,59,119,89,198,58,134,63,172,58,35,156,8,59,200,9,2,59,216,28,236,58,193,176,20,59,131,86,8,59,47,126,19,59,70,130,229,58,51,254,10,59,36,198,227,58,32,231,29,59,195,163,252,58,228,8,251,58,218,187,235,58,161,53,0,59,63,167,21,59,153,226,230,58,166,16,42,59,235,228,2,59,50,213,249,58,202,119,14,59,26,0,0,0,115,101,113,117,101,110,116,105,97,108,47,99,111,110,118,50,100,95,49,47,67,111,110,118,50,68,0,0,4,0,0,0,32,0,0,0,3,0,0,0,3,0,0,0,16,0,0,0,2,254,255,255,0,0,0,1,16,0,0,0,16,0,0,0,8,0,0,0,40,0,0,0,116,253,255,255,24,0,0,0,115,101,113,117,101,110,116,105,97,108,47,99,111,110,118,50,100,47,67,111,110,118,50,68,0,0,0,0,4,0,0,0,16,0,0,0,3,0,0,0,3,0,0,0,1,0,0,0,82,254,255,255,0,0,0,1,16,0,0,0,16,0,0,0,7,0,0,0,56,0,0,0,196,253,255,255,42,0,0,0,115,101,113,117,101,110,116,105,97,108,47,99,111,110,118,50,100,95,49,47,66,105,97,115,65,100,100,47,82,101,97,100,86,97,114,105,97,98,108,101,79,112,0,0,1,0,0,0,32,0,0,0,166,254,255,255,0,0,0,1,16,0,0,0,16,0,0,0,6,0,0,0,56,0,0,0,24,254,255,255,40,0,0,0,115,101,113,117,101,110,116,105,97,108,47,99,111,110,118,50,100,47,66,105,97,115,65,100,100,47,82,101,97,100,86,97,114,105,97,98,108,101,79,112,0,0,0,0,1,0,0,0,16,0,0,0,250,254,255,255,0,0,0,1,16,0,0,0,16,0,0,0,5,0,0,0,52,0,0,0,108,254,255,255,39,0,0,0,115,101,113,117,101,110,116,105,97,108,47,100,101,110,115,101,47,66,105,97,115,65,100,100,47,82,101,97,100,86,97,114,105,97,98,108,101,79,112,0,1,0,0,0,64,0,0,0,74,255,255,255,0,0,0,1,16,0,0,0,16,0,0,0,4,0,0,0,56,0,0,0,188,254,255,255,41,0,0,0,115,101,113,117,101,110,116,105,97,108,47,100,101,110,115,101,95,49,47,66,105,97,115,65,100,100,47,82,101,97,100,86,97,114,105,97,98,108,101,79,112,0,0,0,1,0,0,0,10,0,0,0,0,0,22,0,28,0,24,0,23,0,16,0,12,0,8,0,0,0,0,0,0,0,7,0,22,0,0,0,0,0,0,1,20,0,0,0,20,0,0,0,3,0,0,0,0,0,0,2,40,0,0,0,44,255,255,255,24,0,0,0,115,101,113,117,101,110,116,105,97,108,47,102,108,97,116,116,101,110,47,67,111,110,115,116,0,0,0,0,1,0,0,0,2,0,0,0,0,0,22,0,24,0,20,0,0,0,16,0,12,0,8,0,0,0,0,0,0,0,7,0,22,0,0,0,0,0,0,1,16,0,0,0,16,0,0,0,2,0,0,0,40,0,0,0,136,255,255,255,25,0,0,0,115,101,113,117,101,110,116,105,97,108,47,100,101,110,115,101,95,49,47,77,97,116,77,117,108,0,0,0,2,0,0,0,10,0,0,0,64,0,0,0,0,0,22,0,28,0,24,0,0,0,20,0,16,0,12,0,0,0,0,0,8,0,7,0,22,0,0,0,0,0,0,1,20,0,0,0,40,0,0,0,40,0,0,0,1,0,0,0,68,0,0,0,4,0,0,0,255,255,255,255,13,0,0,0,32,0,0,0,1,0,0,0,4,0,4,0,4,0,0,0,30,0,0,0,115,101,114,118,105,110,103,95,100,101,102,97,117,108,116,95,99,111,110,118,50,100,95,105,110,112,117,116,58,48,0,0,4,0,0,0,1,0,0,0,13,0,0,0,32,0,0,0,1,0,0,0,5,0,0,0,96,0,0,0,68,0,0,0,40,0,0,0,20,0,0,0,4,0,0,0,216,255,255,255,25,0,0,0,0,0,0,25,204,255,255,255,9,0,0,0,9,0,0,0,0,0,0,9,244,255,255,255,22,0,0,0,0,0,0,22,12,0,12,0,11,0,0,0,0,0,4,0,12,0,0,0,17,0,0,0,0,0,0,17,12,0,16,0,15,0,0,0,8,0,4,0,12,0,0,0,3,0,0,0,5,0,0,0,0,0,0,3};
const unsigned int kws_model_len = 24416;
