#pragma once
alignas(8) const unsigned char efficientnet_data[] = {
    0x1c, 0x00, 0x00, 0x00, 0x54, 0x46, 0x4c, 0x33, 0x14, 0x00, 0x20, 0x00, 
    0x1c, 0x00, 0x18, 0x00, 0x14, 0x00, 0x10, 0x00, 0x0c, 0x00, 0x00, 0x00, 
    0x08, 0x00, 0x04, 0x00, 0x14, 0x00, 0x00, 0x00, 0x1c, 0x00, 0x00, 0x00, 
    0x98, 0x00, 0x00, 0x00, 0xf0, 0x00, 0x00, 0x00, 0x68, 0x1d, 0x00, 0x00, 
    0x78, 0x1d, 0x00, 0x00, 0xcc, 0x28, 0x00, 0x00, 0x03, 0x00, 0x00, 0x00, 
    0x01, 0x00, 0x00, 0x00, 0x10, 0x00, 0x00, 0x00, 0x00, 0x00, 0x0a, 0x00, 
    0x10, 0x00, 0x0c, 0x00, 0x08, 0x00, 0x04, 0x00, 0x0a, 0x00, 0x00, 0x00, 
    0x0c, 0x00, 0x00, 0x00, 0x1c, 0x00, 0x00, 0x00, 0x3c, 0x00, 0x00, 0x00, 
    0x0f, 0x00, 0x00, 0x00, 0x73, 0x65, 0x72, 0x76, 0x69, 0x6e, 0x67, 0x5f, 
    0x64, 0x65, 0x66, 0x61, 0x75, 0x6c, 0x74, 0x00, 0x01, 0x00, 0x00, 0x00, 
    0x04, 0x00, 0x00, 0x00, 0x90, 0xff, 0xff, 0xff, 0x12, 0x00, 0x00, 0x00, 
    0x04, 0x00, 0x00, 0x00, 0x08, 0x00, 0x00, 0x00, 0x6f, 0x75, 0x74, 0x70, 
    0x75, 0x74, 0x5f, 0x30, 0x00, 0x00, 0x00, 0x00, 0x01, 0x00, 0x00, 0x00, 
    0x04, 0x00, 0x00, 0x00, 0x82, 0xe2, 0xff, 0xff, 0x04, 0x00, 0x00, 0x00, 
    0x0f, 0x00, 0x00, 0x00, 0x6b, 0x65, 0x72, 0x61, 0x73, 0x5f, 0x74, 0x65, 
    0x6e, 0x73, 0x6f, 0x72, 0x5f, 0x33, 0x38, 0x00, 0x02, 0x00, 0x00, 0x00, 
    0x34, 0x00, 0x00, 0x00, 0x04, 0x00, 0x00, 0x00, 0xdc, 0xff, 0xff, 0xff, 
    0x15, 0x00, 0x00, 0x00, 0x04, 0x00, 0x00, 0x00, 0x13, 0x00, 0x00, 0x00, 
    0x43, 0x4f, 0x4e, 0x56, 0x45, 0x52, 0x53, 0x49, 0x4f, 0x4e, 0x5f, 0x4d, 
    0x45, 0x54, 0x41, 0x44, 0x41, 0x54, 0x41, 0x00, 0x08, 0x00, 0x0c, 0x00, 
    0x08, 0x00, 0x04, 0x00, 0x08, 0x00, 0x00, 0x00, 0x14, 0x00, 0x00, 0x00, 
    0x04, 0x00, 0x00, 0x00, 0x13, 0x00, 0x00, 0x00, 0x6d, 0x69, 0x6e, 0x5f, 
    0x72, 0x75, 0x6e, 0x74, 0x69, 0x6d, 0x65, 0x5f, 0x76, 0x65, 0x72, 0x73, 
    0x69, 0x6f, 0x6e, 0x00, 0x16, 0x00, 0x00, 0x00, 0x74, 0x1c, 0x00, 0x00, 
    0x6c, 0x1c, 0x00, 0x00, 0x1c, 0x1c, 0x00, 0x00, 0x8c, 0x1b, 0x00, 0x00, 
    0xfc, 0x1a, 0x00, 0x00, 0xec, 0x12, 0x00, 0x00, 0x5c, 0x0e, 0x00, 0x00, 
    0x4c, 0x06, 0x00, 0x00, 0xbc, 0x03, 0x00, 0x00, 0x84, 0x03, 0x00, 0x00, 
    0x6c, 0x03, 0x00, 0x00, 0x1c, 0x01, 0x00, 0x00, 0xcc, 0x00, 0x00, 0x00, 
    0xc4, 0x00, 0x00, 0x00, 0xbc, 0x00, 0x00, 0x00, 0xb4, 0x00, 0x00, 0x00, 
    0xac, 0x00, 0x00, 0x00, 0xa4, 0x00, 0x00, 0x00, 0x9c, 0x00, 0x00, 0x00, 
    0x94, 0x00, 0x00, 0x00, 0x74, 0x00, 0x00, 0x00, 0x04, 0x00, 0x00, 0x00, 
    0x56, 0xe3, 0xff, 0xff, 0x04, 0x00, 0x00, 0x00, 0x60, 0x00, 0x00, 0x00, 
    0x10, 0x00, 0x00, 0x00, 0x00, 0x00, 0x00, 0x00, 0x08, 0x00, 0x0e, 0x00, 
    0x08, 0x00, 0x04, 0x00, 0x08, 0x00, 0x00, 0x00, 0x10, 0x00, 0x00, 0x00, 
    0x24, 0x00, 0x00, 0x00, 0x00, 0x00, 0x06, 0x00, 0x08, 0x00, 0x04, 0x00, 
    0x06, 0x00, 0x00, 0x00, 0x04, 0x00, 0x00, 0x00, 0x00, 0x00, 0x00, 0x00, 
    0x0c, 0x00, 0x18, 0x00, 0x14, 0x00, 0x10, 0x00, 0x0c, 0x00, 0x04, 0x00, 
    0x0c, 0x00, 0x00, 0x00, 0x99, 0xf4, 0x31, 0x78, 0xd6, 0xc4, 0xb3, 0x50, 
    0x02, 0x00, 0x00, 0x00, 0x02, 0x00, 0x00, 0x00, 0x04, 0x00, 0x00, 0x00, 
    0x06, 0x00, 0x00, 0x00, 0x32, 0x2e, 0x31, 0x39, 0x2e, 0x30, 0x00, 0x00, 
    0xc2, 0xe3, 0xff, 0xff, 0x04, 0x00, 0x00, 0x00, 0x10, 0x00, 0x00, 0x00, 
    0x31, 0x2e, 0x36, 0x2e, 0x30, 0x00, 0x00, 0x00, 0x00, 0x00, 0x00, 0x00, 
    0x00, 0x00, 0x00, 0x00, 0x40, 0xd9, 0xff, 0xff, 0x44, 0xd9, 0xff, 0xff, 
    0x48, 0xd9, 0xff, 0xff, 0x4c, 0xd9, 0xff, 0xff, 0x50, 0xd9, 0xff, 0xff, 
    0x54, 0xd9, 0xff, 0xff, 0x58, 0xd9, 0xff, 0xff, 0xfa, 0xe3, 0xff, 0xff, 
    0x04, 0x00, 0x00, 0x00, 0x40, 0x00, 0x00, 0x00, 0x74, 0xdb, 0x82, 0x3e, 
    0x6f, 0xea, 0x8d, 0x3d, 0x8d, 0x28, 0xd0, 0x3c, 0x5a, 0x6f, 0x4c, 0x3e, 
    0x8b, 0x32, 0xda, 0x3b, 0xf1, 0x02, 0x9d, 0xba, 0x09, 0xe5, 0x3e, 0x3c, 
    0x7f, 0x75, 0x48, 0x3d, 0x9a, 0x67, 0x90, 0x3e, 0xbf, 0x1f, 0xb7, 0x3e, 
    0x61, 0x04, 0x0b, 0x3b, 0xb1, 0x2a, 0xef, 0xba, 0xb8, 0xec, 0x92, 0x3e, 
    0xe6, 0x37, 0x9f, 0x3e, 0x73, 0x32, 0xee, 0x3e, 0x5d, 0x21, 0xed, 0xba, 
    0x46, 0xe4, 0xff, 0xff, 0x04, 0x00, 0x00, 0x00, 0x40, 0x02, 0x00, 0x00, 
    0xc8, 0xba, 0x6d, 0x3f, 0x21, 0x86, 0x92, 0x3f, 0xc3, 0x60, 0x96, 0x3f, 
    0xc1, 0x12, 0x6e, 0x3f, 0xb0, 0x09, 0x99, 0x3f, 0x30, 0x5c, 0x8c, 0x3f, 
    0xcf, 0xf2, 0x79, 0x3f, 0x46, 0xaa, 0x98, 0x3f, 0xe6, 0x7c, 0x7b, 0x3f, 
    0x7d, 0x63, 0x49, 0x3f, 0x08, 0x4e, 0x8d, 0x3f, 0x8d, 0x91, 0x98, 0x3f, 
    0x4b, 0x68, 0x9b, 0x3f, 0x5b, 0x42, 0xa7, 0x3f, 0x8d, 0xcc, 0x84, 0x3f, 
    0x85, 0xb0, 0x9d, 0x3f, 0x03, 0x9f, 0x9f, 0x3f, 0xc5, 0x2d, 0x86, 0x3f, 
    0xd8, 0x99, 0x43, 0x3f, 0x94, 0x46, 0x7f, 0x3f, 0x60, 0xe8, 0x81, 0x3f, 
    0xb6, 0x2a, 0x62, 0x3f, 0xfb, 0x02, 0x6b, 0x3f, 0x07, 0x89, 0x39, 0x3f, 
    0x15, 0x30, 0x2a, 0x3f, 0xf4, 0xd3, 0x49, 0x3f, 0xa5, 0xab, 0x34, 0x3f, 
    0x59, 0x19, 0x3a, 0x3f, 0xad, 0x66, 0x6e, 0x3f, 0x5b, 0xf7, 0x24, 0x3f, 
    0x8f, 0x52, 0x72, 0x3f, 0xfc, 0x41, 0xa0, 0x3f, 0x58, 0xda, 0x8a, 0x3f, 
    0x1d, 0x6f, 0x3e, 0x3f, 0xeb, 0xe4, 0x70, 0x3f, 0x81, 0xc9, 0x6f, 0x3f, 
    0xf4, 0x57, 0xe5, 0x3e, 0x67, 0x80, 0xe4, 0x3e, 0x7f, 0xf5, 0x12, 0x3f, 
    0x24, 0x1c, 0xe7, 0x3e, 0x0e, 0xbb, 0x15, 0x3f, 0x68, 0x77, 0x4b, 0x3f, 
    0x12, 0xb7, 0x64, 0x3f, 0xe4, 0x37, 0x7a, 0x3f, 0x53, 0x19, 0x60, 0x3f, 
    0x5e, 0x61, 0x82, 0x3f, 0x4d, 0x7e, 0x9d, 0x3f, 0x3d, 0xa5, 0x98, 0x3f, 
    0xd9, 0x6e, 0x9b, 0x3f, 0xef, 0x93, 0xbd, 0x3f, 0x12, 0x52, 0x92, 0x3f, 
    0x63, 0x42, 0xb4, 0x3f, 0xe7, 0xa2, 0xaf, 0x3f, 0xd2, 0x9a, 0x7c, 0x3f, 
    0xf2, 0x31, 0x39, 0x3f, 0x9c, 0xbd, 0x47, 0x3f, 0x08, 0x06, 0x88, 0x3f, 
    0x70, 0xaa, 0x84, 0x3f, 0x0d, 0xdf, 0x8c, 0x3f, 0x66, 0xa7, 0x70, 0x3f, 
    0x7b, 0x0b, 0x94, 0x3f, 0xbf, 0x47, 0x5d, 0x3f, 0x22, 0xba, 0x53, 0x3f, 
    0x23, 0xf4, 0x0c, 0x3f, 0xab, 0xa8, 0x22, 0x3f, 0xbf, 0x0e, 0x6f, 0x3f, 
    0x5d, 0xb0, 0x52, 0x3f, 0x4c, 0xde, 0x4f, 0x3f, 0xd5, 0x82, 0x6b, 0x3f, 
    0xa3, 0xe8, 0x8d, 0x3f, 0xca, 0x69, 0x66, 0x3f, 0x31, 0x93, 0x46, 0x3f, 
    0xe8, 0x0b, 0xb8, 0x3e, 0x34, 0x1f, 0x97, 0x3e, 0xc5, 0x08, 0x01, 0xbf, 
    0x6d, 0x1e, 0xc5, 0x3e, 0x12, 0x39, 0x06, 0x3e, 0x6c, 0xf2, 0xb7, 0x3b, 
    0x42, 0x80, 0x79, 0x3d, 0x27, 0xa0, 0xa9, 0xbe, 0x7e, 0x94, 0x70, 0xbf, 
    0x0a, 0xba, 0x8c, 0x3f, 0x5a, 0x89, 0x9e, 0x3f, 0x89, 0xf2, 0x84, 0x3f, 
    0x3f, 0xa3, 0x91, 0x3f, 0x6e, 0xb8, 0x92, 0x3f, 0x18, 0xbc, 0x8d, 0x3f, 
    0x77, 0x5c, 0xa3, 0x3f, 0xa0, 0xf2, 0xa9, 0x3f, 0x07, 0xcb, 0xa0, 0x3f, 
    0x1c, 0xb6, 0x9d, 0x3f, 0xab, 0x6c, 0x8f, 0x3f, 0x6f, 0x08, 0x8b, 0x3f, 
    0x26, 0x05, 0xb2, 0x3f, 0x80, 0x29, 0x94, 0x3f, 0xfd, 0x56, 0xa9, 0x3f, 
    0x96, 0x1e, 0xa7, 0x3f, 0x2c, 0x3c, 0x87, 0x3f, 0xf7, 0x3d, 0x9d, 0x3f, 
    0xd7, 0x21, 0x67, 0x3f, 0x94, 0x8b, 0x58, 0x3f, 0x17, 0x95, 0x3d, 0x3f, 
    0x97, 0x02, 0x5f, 0x3f, 0xec, 0x5a, 0x79, 0x3f, 0x7c, 0xe7, 0x1d, 0x3f, 
    0x1d, 0x9c, 0x7e, 0x3f, 0xe2, 0x55, 0x2f, 0x3f, 0xa0, 0x75, 0x2b, 0x3f, 
    0x5c, 0x15, 0x32, 0x3e, 0xcd, 0xb3, 0xcc, 0x3e, 0xf3, 0x43, 0xf0, 0x3e, 
    0x87, 0xe9, 0x0a, 0x3f, 0x5f, 0xd1, 0x69, 0x3f, 0xbf, 0xc1, 0x5c, 0x3f, 
    0xf4, 0x5a, 0x7a, 0x3f, 0xf5, 0xb5, 0x74, 0x3f, 0x69, 0xd1, 0x2a, 0x3f, 
    0xa3, 0x3e, 0xb2, 0xbe, 0x9c, 0x99, 0x1c, 0xbf, 0xcf, 0xe2, 0x94, 0xbe, 
    0x34, 0x5d, 0x08, 0xbe, 0x7f, 0xe8, 0x72, 0xbe, 0x98, 0xa5, 0x2f, 0xbe, 
    0x38, 0xdc, 0x1b, 0x3f, 0x87, 0x84, 0x25, 0x3f, 0x09, 0xb3, 0x4d, 0x3e, 
    0x82, 0x9e, 0xaf, 0x3b, 0xd0, 0x6e, 0xef, 0xbd, 0x57, 0x91, 0x5f, 0xbf, 
    0x41, 0x8f, 0xe8, 0xbd, 0x06, 0x04, 0xc2, 0x3d, 0x5e, 0x67, 0x3e, 0xbf, 
    0x93, 0x45, 0xb5, 0xbe, 0xf9, 0x7f, 0xc2, 0xbe, 0x82, 0x7f, 0x8e, 0xbf, 
    0x0a, 0x63, 0x79, 0xbf, 0x0f, 0xcf, 0xdb, 0x3d, 0xd8, 0x1f, 0x23, 0x3f, 
    0x9a, 0x06, 0x01, 0xbf, 0x87, 0x53, 0x10, 0x3e, 0x69, 0x56, 0xf3, 0x3e, 
    0xf7, 0x31, 0x02, 0xbf, 0xa2, 0x3d, 0x87, 0x3e, 0x47, 0x67, 0xc5, 0x3e, 
    0x92, 0xe6, 0xff, 0xff, 0x04, 0x00, 0x00, 0x00, 0x08, 0x00, 0x00, 0x00, 
    0x01, 0x00, 0x00, 0x00, 0x02, 0x00, 0x00, 0x00, 0xa6, 0xe6, 0xff, 0xff, 
    0x04, 0x00, 0x00, 0x00, 0x28, 0x00, 0x00, 0x00, 0x8c, 0x99, 0xca, 0xbd, 
    0x87, 0xc7, 0xf4, 0x3d, 0xf4, 0x1b, 0x90, 0xbc, 0xc0, 0xb2, 0x98, 0x3c, 
    0xda, 0x71, 0x4a, 0xbd, 0x4a, 0xd8, 0xe5, 0xbd, 0x83, 0xb6, 0xd0, 0xbd, 
    0x3d, 0x4c, 0x7b, 0x3d, 0xbe, 0xe6, 0x4e, 0xbc, 0xe0, 0x8f, 0xc0, 0x3d, 
    0xda, 0xe6, 0xff, 0xff, 0x04, 0x00, 0x00, 0x00, 0x80, 0x02, 0x00, 0x00, 
    0x1a, 0xbd, 0x3d, 0xbd, 0xfd, 0xb1, 0x85, 0xbf, 0x44, 0xd6, 0x1a, 0xbf, 
    0x29, 0x4c, 0xba, 0x3e, 0x2a, 0x32, 0xa0, 0x3e, 0x36, 0x88, 0x70, 0xbe, 
    0x6e, 0x96, 0x07, 0x3f, 0x89, 0x89, 0x44, 0x3e, 0x02, 0x4d, 0xc7, 0xbc, 
    0x13, 0xc8, 0x97, 0xbe, 0x18, 0xf6, 0xe1, 0xbe, 0x85, 0x79, 0xe8, 0xbe, 
    0x88, 0x89, 0x45, 0x3e, 0x26, 0x11, 0x0f, 0x3d, 0x1f, 0xca, 0xa0, 0x3e, 
    0xea, 0x8c, 0x42, 0xbc, 0x07, 0x5f, 0x00, 0xbe, 0x7b, 0xa9, 0xff, 0x3e, 
    0x75, 0xfb, 0x6b, 0xbe, 0x3d, 0x05, 0x10, 0xbe, 0x59, 0x77, 0xda, 0x3e, 
    0x37, 0x2e, 0x34, 0xbf, 0x77, 0x3c, 0x9b, 0x3e, 0x26, 0x88, 0x43, 0x3f, 
    0xc5, 0x3b, 0x3f, 0x3f, 0xcf, 0xb0, 0xf0, 0x3d, 0xc0, 0xcf, 0x84, 0xbf, 
    0xf6, 0x2b, 0x1a, 0x3f, 0x64, 0x3a, 0x89, 0xbe, 0x71, 0x07, 0x49, 0x3f, 
    0xad, 0xfb, 0x37, 0xbf, 0x51, 0x04, 0x34, 0xbf, 0x6e, 0x53, 0xbf, 0xbd, 
    0xeb, 0x2e, 0x06, 0x3f, 0xe1, 0x51, 0x64, 0xbd, 0x2b, 0x06, 0xc0, 0x3e, 
    0xa9, 0x36, 0x22, 0xbf, 0x70, 0x46, 0x05, 0x3f, 0x32, 0x60, 0x9d, 0x3e, 
    0xf2, 0xd1, 0xce, 0x3e, 0x44, 0x5d, 0x25, 0xbf, 0xb0, 0xb1, 0x0d, 0xbe, 
    0x58, 0x4e, 0x17, 0xbe, 0xc6, 0x06, 0x1e, 0xbf, 0x3e, 0x71, 0xb8, 0x3e, 
    0x43, 0xf0, 0x9b, 0x3b, 0x3d, 0x21, 0x34, 0x3e, 0x9a, 0x64, 0x7f, 0xbe, 
    0xe9, 0xe8, 0x1f, 0x3e, 0xe5, 0x71, 0xba, 0x3e, 0x3c, 0x24, 0x04, 0x3d, 
    0x28, 0xd0, 0xc4, 0x3e, 0x60, 0x26, 0x7b, 0xbf, 0xc8, 0xc5, 0x75, 0x3d, 
    0x26, 0xe9, 0xb6, 0xbe, 0xd4, 0x8b, 0x6f, 0xbf, 0x9c, 0x00, 0x25, 0x3e, 
    0x81, 0xdd, 0xbf, 0xbe, 0xf5, 0xd0, 0xe3, 0x3e, 0x0b, 0x1d, 0x10, 0xbf, 
    0x39, 0xd5, 0xdd, 0x3e, 0xed, 0x0f, 0x39, 0xbc, 0xb0, 0x44, 0xc4, 0xbd, 
    0x5f, 0xd6, 0x12, 0xbe, 0x38, 0x90, 0x47, 0x3e, 0x34, 0x53, 0x4a, 0x3e, 
    0x17, 0x87, 0x9f, 0xbd, 0x54, 0xeb, 0x8f, 0x3e, 0x80, 0xad, 0xdb, 0xbd, 
    0x41, 0x79, 0x16, 0xbf, 0x0a, 0x14, 0x48, 0x3e, 0x7c, 0x59, 0x26, 0xbe, 
    0x9d, 0x90, 0x0f, 0x3f, 0xff, 0xa9, 0x58, 0xbf, 0xbb, 0x2b, 0x17, 0xbe, 
    0x9d, 0x01, 0x73, 0xbe, 0x29, 0x11, 0x67, 0x3e, 0x4c, 0x5d, 0x80, 0x3e, 
    0xbf, 0x0f, 0x32, 0xbe, 0x0a, 0x25, 0xd1, 0xbe, 0xad, 0x32, 0x9d, 0xbe, 
    0x8f, 0x54, 0x67, 0x3e, 0x8c, 0xe0, 0x61, 0x3e, 0x78, 0x9b, 0x00, 0x3e, 
    0xbe, 0x4c, 0x3a, 0xbd, 0x9e, 0xe5, 0x33, 0x3f, 0x40, 0xb4, 0x4c, 0xbe, 
    0xf2, 0xaf, 0xb7, 0xbe, 0x6b, 0xe4, 0xfb, 0xbe, 0x59, 0xfc, 0xc5, 0x3e, 
    0x54, 0x82, 0x32, 0x3e, 0x8d, 0x32, 0x2f, 0xbe, 0xd4, 0x8c, 0x02, 0x3e, 
    0x77, 0x37, 0x2d, 0x3d, 0xb3, 0x3e, 0x04, 0x3f, 0x9c, 0x31, 0xc1, 0xbe, 
    0xe4, 0x81, 0x0f, 0x3e, 0xff, 0xf6, 0xc0, 0x3e, 0xa1, 0xbd, 0xde, 0xbd, 
    0x5c, 0x8c, 0x35, 0x3e, 0xd8, 0xa8, 0xfd, 0x3d, 0x27, 0x7f, 0x92, 0x3e, 
    0xce, 0xc7, 0xa1, 0xbe, 0x18, 0xe1, 0x6b, 0x3f, 0xc0, 0x41, 0x1d, 0xbe, 
    0xf6, 0x8e, 0x8f, 0xbe, 0xc4, 0x99, 0x96, 0xbc, 0x6b, 0xaa, 0xae, 0x3e, 
    0x56, 0x19, 0xf1, 0xbd, 0xdf, 0x56, 0xa8, 0x3c, 0xec, 0x14, 0xe4, 0x3c, 
    0x9a, 0xfa, 0x99, 0xbe, 0x3f, 0xa0, 0xe0, 0xbe, 0xe8, 0x35, 0xe6, 0x3d, 
    0x68, 0x8b, 0xc5, 0xbe, 0x6b, 0xf2, 0x51, 0x3e, 0xd9, 0x73, 0x19, 0x3f, 
    0x0c, 0x35, 0xc1, 0xbe, 0xe8, 0x6f, 0xa2, 0xbd, 0x7b, 0xad, 0xa0, 0xbe, 
    0xa7, 0x83, 0x09, 0x3e, 0xb4, 0xc1, 0x2b, 0xbf, 0x80, 0x63, 0x50, 0xbe, 
    0x4b, 0x17, 0xf1, 0x3e, 0x05, 0xfc, 0x20, 0x3e, 0x05, 0x18, 0xfa, 0x3e, 
    0xa2, 0x43, 0x4f, 0x3f, 0x83, 0x5b, 0x00, 0xbf, 0x74, 0x6a, 0xda, 0xbe, 
    0x5a, 0x36, 0xce, 0xbd, 0xda, 0x54, 0x8d, 0x3d, 0x14, 0xfc, 0x41, 0xbf, 
    0x8e, 0x84, 0x9a, 0x3e, 0x2b, 0x3b, 0x5f, 0xbe, 0xfb, 0x70, 0x54, 0xbf, 
    0xfc, 0x7b, 0x85, 0xbd, 0x2e, 0xc6, 0x39, 0x3e, 0xe4, 0x27, 0xbc, 0x3c, 
    0x9a, 0xbc, 0x03, 0x3f, 0x18, 0x5d, 0x27, 0xbf, 0x73, 0x24, 0xaf, 0x3e, 
    0x77, 0x26, 0x82, 0x3e, 0xb8, 0x56, 0xc2, 0xbe, 0xb7, 0x5c, 0x9a, 0xbb, 
    0x2d, 0xe0, 0xc9, 0x3e, 0x99, 0x50, 0xaf, 0x3e, 0x04, 0xe7, 0xb9, 0xbe, 
    0x5f, 0x25, 0x72, 0xbf, 0x1f, 0x7c, 0xff, 0x3d, 0xb6, 0x7c, 0x4a, 0xbf, 
    0xe7, 0x24, 0xfa, 0xbe, 0xc0, 0x0c, 0x02, 0xbe, 0xa1, 0x01, 0xe7, 0x3e, 
    0x2a, 0x59, 0x11, 0xbf, 0x0e, 0xb7, 0x56, 0x3e, 0x6d, 0xaa, 0xca, 0xbe, 
    0x90, 0xc1, 0xf8, 0x3e, 0xde, 0xc0, 0x7b, 0x3e, 0xad, 0xc2, 0x9b, 0x3d, 
    0x7b, 0xdc, 0x92, 0xbe, 0x66, 0xe9, 0xff, 0xff, 0x04, 0x00, 0x00, 0x00, 
    0x00, 0x08, 0x00, 0x00, 0x70, 0xb9, 0x24, 0x3f, 0xc4, 0x3f, 0xf7, 0x3e, 
    0xb9, 0x9f, 0x59, 0x3f, 0x2f, 0x7d, 0x88, 0x3e, 0x53, 0x9d, 0xff, 0x3e, 
    0xfa, 0x1f, 0x34, 0x3f, 0x93, 0xcc, 0x1f, 0x3f, 0x6f, 0x36, 0x3c, 0x3f, 
    0xdd, 0x59, 0xac, 0xbf, 0x1c, 0xa3, 0x38, 0x3f, 0x64, 0x65, 0x18, 0x3f, 
    0x65, 0x3b, 0x2d, 0x3f, 0xda, 0xcb, 0xb3, 0x3d, 0xa0, 0x2d, 0x2d, 0x3e, 
    0x57, 0xe7, 0x02, 0xbf, 0xcb, 0x11, 0x60, 0x3d, 0x63, 0xba, 0x09, 0x3f, 
    0x40, 0x6d, 0xb4, 0x3e, 0xb0, 0x63, 0x0b, 0x3f, 0x6d, 0x5f, 0xa1, 0x3e, 
    0xd8, 0x5f, 0x13, 0xbe, 0xb9, 0xa8, 0xdf, 0x3d, 0xe2, 0x50, 0x6f, 0x3d, 
    0x58, 0xed, 0x25, 0x3e, 0xb3, 0x5f, 0x6b, 0xbd, 0x13, 0x69, 0x10, 0x3f, 
    0xf1, 0x36, 0xdc, 0xbc, 0x67, 0xf5, 0x7c, 0xbc, 0xc6, 0xe4, 0xca, 0x3e, 
    0xda, 0x2c, 0xc4, 0x3d, 0x17, 0xf0, 0xb2, 0x3e, 0xea, 0x2d, 0x01, 0x3e, 
    0xe3, 0xb1, 0xf7, 0x3e, 0x0c, 0x10, 0x88, 0x3e, 0x5f, 0x50, 0x34, 0x3e, 
    0xb4, 0xc2, 0xb5, 0x3d, 0x71, 0xae, 0xc9, 0x3e, 0x74, 0xc8, 0xa9, 0x3e, 
    0xb2, 0x26, 0xa0, 0x3e, 0xd3, 0x50, 0x5f, 0x3e, 0x53, 0x9e, 0x18, 0xbf, 
    0x04, 0xb3, 0xae, 0x3d, 0x39, 0xec, 0x30, 0x3e, 0x34, 0x05, 0x51, 0xbe, 
    0x6e, 0x48, 0xf8, 0x3e, 0xe7, 0xa6, 0xd4, 0x3e, 0xc1, 0x42, 0x07, 0xbf, 
    0x3d, 0xc0, 0xc8, 0xbd, 0xb3, 0x9a, 0x91, 0x3d, 0x8d, 0xa9, 0x63, 0x3e, 
    0x9c, 0x24, 0x93, 0x3e, 0x12, 0x4e, 0xf5, 0x3e, 0x7c, 0x45, 0x93, 0x3e, 
    0xac, 0x64, 0xbe, 0x3e, 0xd8, 0x66, 0xec, 0x3e, 0x5e, 0x05, 0x15, 0xbe, 
    0x04, 0x6a, 0xc1, 0xbe, 0xad, 0xdf, 0x22, 0x3e, 0x14, 0x45, 0xec, 0x3d, 
    0x4b, 0x37, 0xcc, 0xbd, 0x93, 0x17, 0xad, 0x3d, 0x24, 0x18, 0xd6, 0x3e, 
    0xe1, 0x77, 0x30, 0xbe, 0x54, 0xe1, 0x89, 0x3e, 0x9d, 0xda, 0x8b, 0x3e, 
    0x13, 0x3f, 0x03, 0x3f, 0xaf, 0x39, 0x47, 0x3d, 0xa3, 0x75, 0xe8, 0x3e, 
    0x79, 0xb6, 0x04, 0x3f, 0x6f, 0x1b, 0xdb, 0x3e, 0x52, 0x8c, 0x7b, 0x3e, 
    0x69, 0xa4, 0x01, 0x3f, 0xcf, 0xfd, 0x80, 0x3e, 0x64, 0x7c, 0xa0, 0x3e, 
    0xc7, 0xeb, 0x4e, 0x3e, 0x36, 0x3e, 0xef, 0x3e, 0x9d, 0x25, 0x72, 0x3e, 
    0xd3, 0x1f, 0x56, 0x3e, 0xf8, 0xb8, 0xd2, 0xbe, 0x98, 0x76, 0x85, 0x3f, 
    0x4a, 0x7b, 0x3c, 0x3f, 0xd8, 0x43, 0xb8, 0x3e, 0x0c, 0xe2, 0x0c, 0x3f, 
    0x11, 0x2b, 0xcb, 0x3e, 0xee, 0xc5, 0xb1, 0x3e, 0xf3, 0xf4, 0x4e, 0x3f, 
    0x0e, 0x5c, 0xc9, 0x3e, 0xdc, 0x85, 0xc4, 0x3e, 0x73, 0x60, 0x8e, 0x3e, 
    0x5a, 0x59, 0x90, 0x3e, 0x05, 0x6a, 0x31, 0x3f, 0x8f, 0x5a, 0x44, 0x3f, 
    0x66, 0x92, 0x44, 0x3f, 0x5b, 0x1e, 0x23, 0xbf, 0xa7, 0x73, 0x77, 0xbe, 
    0x43, 0x8d, 0x33, 0x3f, 0x72, 0xe0, 0x33, 0xbd, 0x5c, 0x02, 0x9a, 0x3e, 
    0x29, 0x55, 0xf6, 0x3e, 0x89, 0xd7, 0xe3, 0x3b, 0xbf, 0x52, 0xeb, 0x3d, 
    0x0b, 0x95, 0x9a, 0x3e, 0xd1, 0x74, 0x4f, 0x3d, 0x32, 0x01, 0xac, 0x3e, 
    0xf3, 0x02, 0x04, 0xbf, 0x60, 0x6a, 0x23, 0x3f, 0x24, 0x42, 0x05, 0x3f, 
    0x86, 0x20, 0xf2, 0x3e, 0x33, 0x99, 0xe1, 0x3e, 0x91, 0x09, 0x51, 0xbe, 
    0xe4, 0x44, 0x1d, 0xbf, 0x43, 0x89, 0xda, 0x3e, 0x19, 0xd7, 0x53, 0x3e, 
    0xd7, 0xb5, 0x97, 0xbe, 0x1e, 0x8f, 0xb1, 0xbe, 0x44, 0xdb, 0x69, 0x3e, 
    0x7d, 0xdf, 0xb7, 0xbe, 0xeb, 0xbd, 0x09, 0xbf, 0x15, 0xf0, 0xca, 0xbe, 
    0xf4, 0x51, 0x11, 0x3e, 0xfa, 0x7a, 0xa1, 0x3e, 0x91, 0x12, 0x16, 0x3e, 
    0x20, 0x6a, 0x74, 0xbe, 0x08, 0xae, 0x05, 0xbf, 0xf3, 0x0e, 0xb3, 0x3e, 
    0x5a, 0xa3, 0x15, 0x3f, 0x2c, 0xe5, 0x06, 0x3f, 0xb1, 0xac, 0x89, 0xbc, 
    0xf4, 0x66, 0x3e, 0x3f, 0x32, 0xbd, 0xe0, 0x3e, 0x85, 0xbd, 0x67, 0x3f, 
    0xee, 0xde, 0xa7, 0x3e, 0x08, 0x4d, 0x0e, 0x3f, 0x11, 0x0a, 0x91, 0x3e, 
    0x51, 0xba, 0xdd, 0x3e, 0x39, 0x28, 0xdf, 0x3e, 0xa0, 0x22, 0x9c, 0xbe, 
    0xe9, 0xee, 0xdb, 0x3e, 0x74, 0x1f, 0x56, 0x3f, 0xa1, 0x46, 0x16, 0x3f, 
    0xda, 0xd5, 0x1c, 0x3f, 0xb1, 0x55, 0xc7, 0xbe, 0x68, 0xf9, 0x1d, 0xbf, 
    0x95, 0xc1, 0x33, 0xbb, 0x5c, 0x2e, 0x3c, 0x3d, 0x93, 0x20, 0x7a, 0xbc, 
    0x3e, 0xc1, 0x23, 0xbe, 0x76, 0xa5, 0xfb, 0x3e, 0x85, 0xe6, 0x89, 0x3e, 
    0x57, 0xac, 0x21, 0xbd, 0x25, 0xd2, 0xce, 0x3d, 0xc5, 0xb0, 0xa0, 0x3e, 
    0xef, 0xbd, 0xc8, 0x3e, 0x4d, 0x1f, 0x3e, 0xbd, 0x1b, 0x83, 0xca, 0x3e, 
    0x82, 0xf9, 0xbc, 0xbd, 0x6d, 0x63, 0x93, 0x3e, 0x2d, 0x14, 0x6a, 0x3e, 
    0x5a, 0x9a, 0x1e, 0xbe, 0x4c, 0x47, 0x9f, 0x3c, 0xbc, 0x19, 0x26, 0x3f, 
    0x7f, 0x5d, 0x96, 0x3e, 0x73, 0xe0, 0x0b, 0x3f, 0xb1, 0x61, 0xcc, 0x3e, 
    0x5d, 0x3d, 0xb6, 0x3e, 0x95, 0x0d, 0xb3, 0x3e, 0x25, 0xad, 0x0e, 0x3f, 
    0x95, 0x2a, 0xbf, 0x3e, 0xc7, 0x38, 0xfa, 0xbe, 0x4b, 0x46, 0x94, 0x3e, 
    0x07, 0xff, 0x4b, 0x3f, 0x39, 0x5c, 0x29, 0x3f, 0x92, 0x9d, 0x2e, 0x3e, 
    0x58, 0xdd, 0x7e, 0x3e, 0x58, 0xfb, 0x33, 0xbf, 0x20, 0xac, 0xbb, 0xbe, 
    0x66, 0x65, 0x9d, 0x3e, 0x99, 0x0f, 0x8b, 0x3e, 0x4c, 0x77, 0x43, 0xbd, 
    0x33, 0x81, 0xf1, 0x3d, 0x4b, 0xa8, 0xdb, 0xbd, 0xdd, 0x7a, 0xe5, 0xbd, 
    0x90, 0x2a, 0x7c, 0x3e, 0x40, 0x41, 0x90, 0xbc, 0xbe, 0x52, 0x97, 0x3e, 
    0xb4, 0x89, 0xd6, 0x3e, 0xd3, 0x88, 0x18, 0xbb, 0x16, 0xa3, 0xa7, 0x3e, 
    0x78, 0x23, 0x23, 0x3e, 0x82, 0x28, 0xc4, 0x3e, 0xd7, 0x5e, 0x0a, 0x3f, 
    0x34, 0x4a, 0xa0, 0xbd, 0xb8, 0xe9, 0xf8, 0x3e, 0xe2, 0x54, 0x8b, 0x3f, 
    0xcc, 0xa4, 0x43, 0x3f, 0xb9, 0x99, 0x51, 0x3f, 0xf0, 0x90, 0x7a, 0x3f, 
    0xe2, 0x0c, 0x55, 0x3f, 0xdf, 0x04, 0x30, 0x3f, 0x3c, 0xff, 0xcb, 0x3e, 
    0x37, 0xe6, 0x44, 0xbf, 0xbb, 0x36, 0x5e, 0x3f, 0xb8, 0x45, 0x3e, 0x3f, 
    0x97, 0x38, 0x30, 0x3f, 0xc9, 0xf7, 0xfa, 0x3e, 0xa9, 0x86, 0x96, 0x3e, 
    0x92, 0xef, 0x23, 0xbf, 0x0c, 0xe1, 0xbb, 0xbd, 0x0e, 0x78, 0x4c, 0x3f, 
    0xde, 0xc2, 0x1c, 0x3f, 0x4a, 0x3d, 0x69, 0x3f, 0xb1, 0x0b, 0x87, 0x3f, 
    0x6d, 0x2d, 0xda, 0x3d, 0x25, 0x02, 0x5a, 0x3f, 0x3b, 0xd8, 0x36, 0x3f, 
    0xc0, 0x9e, 0xd7, 0x3e, 0x0c, 0xb7, 0xcf, 0xbe, 0x1d, 0xd1, 0x2c, 0x3f, 
    0xc7, 0x50, 0x48, 0x3f, 0x26, 0x47, 0x0f, 0x3f, 0x16, 0x13, 0x65, 0xbb, 
    0x9a, 0xb7, 0xda, 0xbf, 0x6b, 0xc6, 0x4b, 0xbf, 0x2b, 0xde, 0x8f, 0xbe, 
    0xdf, 0x26, 0x38, 0x3e, 0x85, 0x3e, 0xdd, 0x3c, 0x26, 0x93, 0x2c, 0x3f, 
    0x8a, 0x92, 0xe6, 0x3e, 0x5b, 0xbc, 0x1c, 0x3f, 0x4a, 0x50, 0x33, 0x3f, 
    0xa8, 0x44, 0x95, 0x3e, 0x16, 0x5b, 0x23, 0x3f, 0x5f, 0xb9, 0xa6, 0xbd, 
    0x4e, 0x5c, 0x11, 0x3f, 0xd5, 0xa7, 0xd7, 0x3e, 0xb1, 0xfd, 0x9f, 0x3e, 
    0xeb, 0xc5, 0xd8, 0x3e, 0xdc, 0x3f, 0x5c, 0x3e, 0xde, 0x24, 0x5b, 0xbf, 
    0x2b, 0x38, 0x55, 0x3f, 0x2a, 0x07, 0xa5, 0xbd, 0x83, 0x91, 0x4c, 0xbe, 
    0xea, 0x9d, 0xe1, 0xbe, 0x8a, 0x59, 0x50, 0xbd, 0x7e, 0x7c, 0x2f, 0x3e, 
    0x2c, 0x7f, 0x62, 0xbd, 0xa2, 0xd5, 0x88, 0xbd, 0x01, 0x31, 0x0e, 0x3d, 
    0x47, 0xe9, 0x9b, 0x3e, 0x7c, 0x74, 0xc9, 0x3e, 0xed, 0xa7, 0x39, 0xbe, 
    0x07, 0xdd, 0x5f, 0xbd, 0x3e, 0xbf, 0x07, 0x3f, 0xb5, 0xc6, 0x8e, 0x3e, 
    0xb4, 0x37, 0x3e, 0x3e, 0x1b, 0xd3, 0x28, 0xbd, 0x99, 0x0b, 0xa3, 0x3d, 
    0x8d, 0x25, 0x8d, 0xbe, 0x79, 0xb2, 0x43, 0xbe, 0xb2, 0xac, 0x94, 0x3e, 
    0xf8, 0x6a, 0x9d, 0x3d, 0xea, 0xff, 0x17, 0x3e, 0x64, 0x32, 0xd8, 0xbc, 
    0x10, 0xe2, 0x3f, 0x3e, 0xbb, 0xc8, 0xeb, 0xbe, 0xbb, 0xde, 0xc4, 0x3d, 
    0x90, 0xf1, 0x8c, 0x3e, 0x29, 0x3e, 0x61, 0xbe, 0xa1, 0x9a, 0x84, 0xbe, 
    0x14, 0xdc, 0x90, 0xbe, 0x31, 0xeb, 0xac, 0xbe, 0x18, 0x59, 0x07, 0x3e, 
    0xfd, 0x16, 0x2f, 0x3f, 0x18, 0x8a, 0xc4, 0x3e, 0x63, 0x4b, 0xc1, 0x3e, 
    0xc7, 0xbf, 0x9e, 0x3e, 0x52, 0xfc, 0x2d, 0x3f, 0x6a, 0x84, 0xd7, 0x3e, 
    0xc7, 0x0c, 0x10, 0x3e, 0x2b, 0xf4, 0x23, 0x3f, 0x4f, 0x03, 0x5e, 0xbd, 
    0xef, 0x15, 0xe3, 0x3e, 0x25, 0x70, 0x33, 0x3f, 0xf2, 0xca, 0x35, 0x3e, 
    0x7d, 0xb6, 0x0b, 0x3f, 0xdf, 0x1f, 0x6d, 0xbf, 0x8c, 0x20, 0xbb, 0xbd, 
    0x5a, 0x93, 0x98, 0x3f, 0x55, 0x50, 0x82, 0x3e, 0x61, 0x75, 0x15, 0xbe, 
    0xb6, 0x77, 0x15, 0xbe, 0x45, 0x35, 0x90, 0x3e, 0x96, 0x42, 0xa1, 0xbe, 
    0x07, 0x47, 0xcf, 0xbd, 0x23, 0xe6, 0x93, 0xbe, 0xdb, 0xc1, 0xff, 0x3d, 
    0x88, 0xb5, 0x01, 0x3e, 0xbf, 0x2d, 0x6a, 0xbd, 0xa9, 0x3e, 0x69, 0xbe, 
    0x26, 0xbf, 0x8b, 0xbd, 0x6e, 0x65, 0xa3, 0xbe, 0xc2, 0x9a, 0xaa, 0xbe, 
    0x93, 0xa2, 0xfc, 0xbc, 0xd7, 0xc0, 0x9a, 0x3e, 0x72, 0x98, 0xef, 0xbb, 
    0x1e, 0x01, 0xb1, 0x3e, 0xa5, 0xbc, 0x85, 0xbd, 0xa6, 0x70, 0xd7, 0x3d, 
    0xf2, 0x4b, 0xb1, 0x3e, 0x90, 0xb1, 0x6b, 0xbc, 0xca, 0xdb, 0xa1, 0x3e, 
    0x40, 0x29, 0x83, 0x3e, 0x69, 0xe7, 0x2c, 0xbf, 0x07, 0x05, 0xb1, 0x3e, 
    0xc0, 0x98, 0x77, 0x3e, 0x9b, 0xfc, 0xfe, 0x3d, 0xab, 0x21, 0xec, 0x3e, 
    0xcf, 0x7f, 0x1e, 0x3f, 0xd7, 0x0f, 0x51, 0xbf, 0xbe, 0x27, 0xc6, 0x3e, 
    0xa1, 0xb2, 0x51, 0xbd, 0x90, 0x73, 0x09, 0x3e, 0x08, 0x98, 0xc6, 0xbd, 
    0xe9, 0xa3, 0xe5, 0x3e, 0xa1, 0x6a, 0xda, 0x3e, 0xe1, 0x58, 0xb1, 0x3e, 
    0x26, 0x23, 0x75, 0x3e, 0x66, 0x12, 0xe2, 0x3e, 0xb9, 0x13, 0xd4, 0xbe, 
    0xb7, 0xa7, 0xf9, 0xbc, 0x82, 0xad, 0xba, 0x3e, 0xd7, 0x43, 0x74, 0x3d, 
    0x90, 0x10, 0x13, 0x3f, 0x71, 0xcd, 0xa9, 0x3e, 0x13, 0x21, 0x44, 0xbf, 
    0x22, 0x4e, 0x16, 0xbe, 0x88, 0xe7, 0xb3, 0xbe, 0xbe, 0x57, 0xa8, 0xbd, 
    0xce, 0x12, 0xad, 0xbe, 0x7c, 0xab, 0xb3, 0xbc, 0x55, 0xe6, 0x9f, 0xbe, 
    0x68, 0xc5, 0x14, 0xbd, 0x42, 0xc6, 0x01, 0xbe, 0xbe, 0xbe, 0x89, 0xbe, 
    0xe6, 0xf6, 0x9e, 0x3e, 0x79, 0x44, 0x9a, 0xbe, 0x48, 0x93, 0x0a, 0x3e, 
    0xaf, 0x35, 0xa0, 0xbe, 0x36, 0xb2, 0xaf, 0x3d, 0xf2, 0x77, 0x32, 0xbe, 
    0x66, 0x4b, 0xa9, 0x3e, 0x3c, 0x6a, 0xaf, 0xbe, 0x4f, 0x74, 0x6e, 0x3f, 
    0xe1, 0x1e, 0x45, 0x3f, 0x68, 0xe5, 0x4c, 0x3f, 0xbb, 0xc8, 0x4e, 0x3f, 
    0x25, 0x30, 0x42, 0x3f, 0xa9, 0x78, 0xc9, 0x3e, 0x50, 0x5d, 0x98, 0x3e, 
    0xfe, 0xd3, 0x19, 0x3f, 0x5c, 0xbd, 0x54, 0xbf, 0xfe, 0xad, 0x68, 0x3f, 
    0xf9, 0x12, 0x2f, 0x3f, 0xc9, 0xe7, 0x59, 0x3f, 0x61, 0x63, 0xfb, 0x3e, 
    0x81, 0x1d, 0x82, 0x3d, 0xed, 0x12, 0x59, 0xbf, 0xae, 0x4b, 0x6c, 0x3e, 
    0x58, 0x8e, 0x87, 0xbe, 0x7d, 0xd5, 0x4a, 0x3e, 0x8f, 0xdd, 0x5e, 0xbe, 
    0x2b, 0xdb, 0xa1, 0x3e, 0x84, 0x4d, 0xb2, 0xbe, 0x62, 0xf1, 0xbf, 0x3e, 
    0x16, 0x54, 0x40, 0xbe, 0x48, 0xe7, 0xaa, 0x3e, 0x64, 0x7c, 0x0f, 0x3f, 
    0x57, 0x46, 0x8d, 0x3b, 0x0a, 0xe2, 0xaf, 0x3e, 0x5c, 0x1d, 0x45, 0x3e, 
    0x5a, 0xc2, 0xb8, 0x3d, 0xcc, 0xc3, 0xc4, 0xbe, 0xb4, 0xde, 0xbb, 0x3e, 
    0xcd, 0xcf, 0x93, 0xbd, 0x4c, 0xc8, 0x04, 0x3f, 0xdb, 0xa9, 0x09, 0x3f, 
    0x8f, 0x2f, 0xda, 0x3e, 0x34, 0x23, 0x45, 0x3f, 0xfa, 0x4c, 0x0a, 0x3f, 
    0x60, 0x0b, 0x77, 0x3f, 0xa5, 0x03, 0x36, 0x3f, 0x95, 0x26, 0x1c, 0x3f, 
    0x6b, 0xb1, 0x36, 0x3f, 0xf8, 0xe2, 0x67, 0x3f, 0x6f, 0xcb, 0x7a, 0x3f, 
    0x43, 0xa2, 0x11, 0x3f, 0xb1, 0x6e, 0x13, 0x3f, 0xf4, 0xd9, 0x9e, 0xbf, 
    0x46, 0x35, 0x88, 0xbe, 0x3a, 0x86, 0xcc, 0x3f, 0x7f, 0xf6, 0x70, 0x3c, 
    0x4d, 0x74, 0xb7, 0xbe, 0x4a, 0x16, 0x2c, 0xbe, 0x06, 0xf2, 0xe6, 0xbd, 
    0xe8, 0x05, 0xb5, 0xbe, 0x16, 0xca, 0x43, 0xbe, 0x20, 0x3f, 0xb1, 0xbe, 
    0x81, 0xec, 0xc9, 0xbc, 0xf7, 0x4f, 0x86, 0x3e, 0x48, 0x22, 0x92, 0xbd, 
    0xe9, 0x6f, 0x35, 0xbe, 0xd7, 0xca, 0x69, 0x3e, 0xa8, 0x01, 0xb0, 0xbe, 
    0x73, 0xe4, 0x83, 0xbd, 0x6d, 0x3f, 0x29, 0x3e, 0x87, 0xce, 0xa7, 0xbe, 
    0xa4, 0x7d, 0xa2, 0x3e, 0x7c, 0xcb, 0x63, 0x3f, 0x2a, 0xd9, 0x0c, 0x3f, 
    0xc4, 0x45, 0x3d, 0x3f, 0x96, 0x1e, 0x1f, 0x3f, 0x76, 0x92, 0x64, 0x3f, 
    0x5a, 0x74, 0x5e, 0x3f, 0x67, 0x84, 0xb9, 0x3e, 0xef, 0x4c, 0x07, 0x3f, 
    0x00, 0xb4, 0x09, 0x3f, 0xe3, 0x0d, 0x20, 0x3f, 0xb1, 0x8b, 0x01, 0x3f, 
    0x6c, 0x6a, 0x06, 0x3f, 0x21, 0xa5, 0x20, 0xbf, 0x12, 0x7b, 0x7e, 0x3e, 
    0x69, 0x59, 0x30, 0x3f, 0xaa, 0x2f, 0xc6, 0x3d, 0x6a, 0x88, 0x68, 0xbe, 
    0xc0, 0x04, 0xe4, 0x3c, 0x0a, 0xfb, 0x6c, 0xbe, 0xba, 0x38, 0x37, 0xbd, 
    0xcc, 0xef, 0xfe, 0xbd, 0x80, 0x28, 0x62, 0xbe, 0xc6, 0xe4, 0x9c, 0xbe, 
    0xc2, 0x72, 0xa8, 0xbe, 0x5d, 0xe8, 0x16, 0xbd, 0xc6, 0x8f, 0xcd, 0x3b, 
    0x3c, 0x5b, 0x0f, 0x3e, 0x9f, 0x30, 0xf7, 0x3d, 0x94, 0x37, 0x85, 0x3e, 
    0xb0, 0x8a, 0xaa, 0xbd, 0x0f, 0xec, 0x32, 0x3d, 0x1f, 0x0c, 0xdf, 0x3e, 
    0x16, 0x68, 0xa4, 0x3e, 0xc5, 0x87, 0x7f, 0x3e, 0x81, 0xda, 0x6d, 0x3e, 
    0xf0, 0x2b, 0xdd, 0x3e, 0x5b, 0x2f, 0x22, 0x3f, 0x0b, 0xa9, 0x3e, 0x3f, 
    0xc2, 0x48, 0x7c, 0x3e, 0xdf, 0x53, 0xfc, 0xbe, 0x67, 0xa5, 0x8d, 0x3e, 
    0x02, 0x63, 0x16, 0x3f, 0x26, 0x2b, 0x4e, 0x3f, 0xce, 0x22, 0x13, 0x3f, 
    0x5e, 0x88, 0xca, 0xbe, 0x9f, 0x1a, 0xc9, 0xbe, 0x48, 0x1a, 0x4a, 0xbe, 
    0x94, 0x8a, 0x49, 0xbe, 0x84, 0x13, 0x67, 0xbe, 0x04, 0xaa, 0x98, 0xbc, 
    0xf1, 0xa8, 0x1d, 0x3c, 0xea, 0x81, 0x7e, 0xbe, 0xb5, 0xf3, 0xd2, 0x3d, 
    0x6f, 0x19, 0x2e, 0xbe, 0x66, 0x7b, 0x8d, 0xbd, 0xc4, 0x43, 0x7e, 0x3c, 
    0x10, 0x7c, 0xa6, 0x3e, 0x9d, 0x0b, 0xab, 0x3d, 0x2e, 0xb5, 0x94, 0xbe, 
    0x63, 0x2c, 0x99, 0xbd, 0x6c, 0x60, 0xb6, 0xbd, 0x6c, 0xa0, 0x1a, 0x3c, 
    0x9e, 0xf5, 0x03, 0x3e, 0x12, 0x3d, 0x96, 0x3f, 0x98, 0x47, 0xa5, 0x3f, 
    0xa9, 0x9c, 0x8e, 0x3f, 0x00, 0x29, 0x4b, 0x3f, 0x03, 0x50, 0x3a, 0x3f, 
    0x30, 0x1e, 0xa7, 0x3f, 0x7f, 0x3f, 0x4e, 0x3f, 0x04, 0xa6, 0x0c, 0x3f, 
    0x73, 0x6e, 0x85, 0xbf, 0xa4, 0x36, 0xa3, 0x3f, 0x0c, 0xf9, 0x56, 0x3f, 
    0x38, 0x7a, 0xa4, 0x3f, 0x99, 0x3d, 0x6b, 0x3e, 0x53, 0x88, 0x69, 0xbf, 
    0xcd, 0xbc, 0xaf, 0xbf, 0xb9, 0x0a, 0x29, 0x3f, 0x3a, 0x50, 0x0f, 0x3f, 
    0xd7, 0xcc, 0x35, 0x3f, 0x5c, 0x37, 0x40, 0x3f, 0x34, 0x79, 0xe4, 0x3e, 
    0x18, 0x62, 0x85, 0x3f, 0xca, 0xf7, 0x69, 0x3f, 0xb3, 0x55, 0x29, 0x3f, 
    0xc9, 0xa5, 0x2b, 0x3f, 0x50, 0x8b, 0x9f, 0xbf, 0xa2, 0x69, 0xbe, 0x3e, 
    0xd8, 0xda, 0x79, 0x3f, 0x08, 0x74, 0x81, 0x3f, 0xf4, 0xfa, 0x24, 0x3f, 
    0x76, 0x21, 0xa9, 0x3e, 0x8f, 0x1f, 0x6a, 0xbf, 0x4d, 0x24, 0xf6, 0xbd, 
    0x72, 0xf1, 0xff, 0xff, 0x04, 0x00, 0x00, 0x00, 0x80, 0x04, 0x00, 0x00, 
    0x30, 0xc0, 0xdf, 0x3d, 0x0c, 0xc6, 0x02, 0x3f, 0xa4, 0xb9, 0x0b, 0x3d, 
    0xf2, 0x70, 0x7f, 0x3d, 0x97, 0x64, 0x59, 0x3e, 0x33, 0x1f, 0xc3, 0xbe, 
    0x20, 0xce, 0x63, 0xbc, 0x01, 0x3c, 0xe0, 0x3e, 0x34, 0xc0, 0x1d, 0x3e, 
    0xcc, 0x9f, 0xf4, 0xbc, 0x8e, 0xed, 0xf6, 0xbe, 0x55, 0x66, 0x24, 0x3e, 
    0x97, 0x58, 0x84, 0xbf, 0x35, 0xa2, 0x14, 0xbe, 0x1d, 0x7c, 0xe2, 0x3e, 
    0x41, 0x68, 0x0b, 0x3f, 0x05, 0xc5, 0x03, 0xbe, 0xfe, 0x96, 0xa1, 0xbe, 
    0x89, 0xff, 0xf1, 0xbd, 0xf5, 0xd5, 0xcb, 0xbd, 0x5e, 0xbe, 0x71, 0x3e, 
    0x59, 0xbe, 0x88, 0xbd, 0x1e, 0xb7, 0x8a, 0x3e, 0xd9, 0xf3, 0x91, 0xbd, 
    0xa9, 0x38, 0xf4, 0xbe, 0x62, 0x13, 0x55, 0x3d, 0x7a, 0xc2, 0x7c, 0xbf, 
    0xa7, 0xab, 0xeb, 0xbd, 0xcc, 0x4a, 0x33, 0xbf, 0x7b, 0x5a, 0xf3, 0x3d, 
    0xaf, 0x13, 0x92, 0xbd, 0xfc, 0x7c, 0x0a, 0xbf, 0x7c, 0x51, 0x13, 0x3e, 
    0x1f, 0xc7, 0x0e, 0x3f, 0xc2, 0xb7, 0x5b, 0x3e, 0x88, 0x1e, 0xcd, 0xbb, 
    0x07, 0x4f, 0x03, 0xbc, 0x45, 0xf0, 0x5a, 0x3e, 0x52, 0xf2, 0x40, 0xbd, 
    0x3d, 0x2d, 0xe6, 0x3e, 0x54, 0xb5, 0x97, 0x3e, 0xef, 0xda, 0x48, 0x3d, 
    0x64, 0xf3, 0xff, 0xbe, 0x84, 0x8b, 0x3b, 0x3e, 0xd9, 0x05, 0x07, 0xbf, 
    0x71, 0xff, 0x91, 0xbe, 0x26, 0xd9, 0xd3, 0x3e, 0x9e, 0xbb, 0x0f, 0x3f, 
    0x6c, 0x47, 0xce, 0x3c, 0x64, 0xea, 0xf4, 0xbd, 0x47, 0x5b, 0x12, 0x3e, 
    0x8e, 0x0e, 0x1b, 0x3e, 0xf7, 0x14, 0xe6, 0x3d, 0x46, 0xb0, 0xea, 0xbd, 
    0x05, 0xac, 0xa1, 0x3e, 0x2a, 0x86, 0x75, 0x3d, 0xa7, 0x30, 0x35, 0x3e, 
    0xd1, 0xb8, 0x3e, 0x3b, 0x01, 0x92, 0xc1, 0xbe, 0x24, 0xbe, 0x39, 0xbd, 
    0x42, 0x7c, 0x29, 0x3d, 0x09, 0x58, 0x2d, 0xbd, 0x87, 0x00, 0x73, 0xbe, 
    0xd6, 0xd8, 0x2b, 0x3d, 0xb0, 0x5f, 0xbb, 0xbd, 0x25, 0xc6, 0x1e, 0x3f, 
    0x19, 0x6b, 0xad, 0x3e, 0x1b, 0x23, 0x07, 0x3e, 0x1b, 0x50, 0xb3, 0x3d, 
    0x61, 0xf1, 0x30, 0x3e, 0x7a, 0xb4, 0x2c, 0xbe, 0xa2, 0x60, 0xe9, 0x3e, 
    0xb0, 0xbf, 0xef, 0x3e, 0x3b, 0xc4, 0x81, 0x3d, 0xee, 0xb0, 0x04, 0xbf, 
    0x0a, 0xa2, 0x85, 0x3e, 0x58, 0xeb, 0xf4, 0xbe, 0x2b, 0x17, 0xa3, 0xbc, 
    0x9d, 0x96, 0xb9, 0x3e, 0x01, 0xca, 0x06, 0x3f, 0xa2, 0x7d, 0xdf, 0xbc, 
    0x49, 0xce, 0xc5, 0x3e, 0xf0, 0x68, 0x09, 0xbd, 0x5e, 0x2f, 0x8e, 0x3e, 
    0x7f, 0xe1, 0x88, 0x3e, 0x99, 0x23, 0xef, 0xbd, 0x97, 0x17, 0xd9, 0x3e, 
    0xdf, 0x5a, 0x20, 0x3e, 0x31, 0xb8, 0x0c, 0x3f, 0x75, 0xd6, 0x76, 0xbd, 
    0x65, 0x39, 0x10, 0x3e, 0xbe, 0x1c, 0x12, 0xbe, 0xd8, 0x8e, 0xf9, 0xbe, 
    0x74, 0xd4, 0xf0, 0x3d, 0x32, 0x7c, 0xac, 0xbe, 0xec, 0xdc, 0x14, 0xbf, 
    0x1f, 0xff, 0xb0, 0xbe, 0xff, 0x28, 0xb7, 0x3e, 0x56, 0x36, 0x4e, 0xbe, 
    0x2c, 0x24, 0x1a, 0x3d, 0x4a, 0x9e, 0xde, 0x3e, 0xb3, 0xea, 0x3c, 0xbe, 
    0x4e, 0x35, 0x80, 0x3d, 0xdc, 0x63, 0x83, 0x3e, 0xa1, 0xb8, 0x67, 0xbe, 
    0xa2, 0x4a, 0xa4, 0x3e, 0xc1, 0xdc, 0x9d, 0x3c, 0xa4, 0x3e, 0x56, 0x3e, 
    0x0c, 0x32, 0x3a, 0x3d, 0x0b, 0xd0, 0xed, 0x3e, 0x7f, 0xeb, 0x6b, 0x3e, 
    0xec, 0x49, 0x95, 0x3e, 0xa0, 0xcc, 0x7c, 0x3e, 0x76, 0x10, 0x1c, 0xbe, 
    0x1d, 0x1b, 0x93, 0x3d, 0xef, 0x12, 0xea, 0xbd, 0xc3, 0xba, 0x3b, 0x3e, 
    0x57, 0x58, 0x3d, 0x3d, 0x9e, 0x62, 0x7b, 0xbe, 0x5b, 0xac, 0x17, 0x3c, 
    0x08, 0x9b, 0xea, 0xbe, 0x12, 0x63, 0x31, 0xbb, 0x57, 0x84, 0x7a, 0xbe, 
    0xca, 0xdf, 0x52, 0xbd, 0x0d, 0xe0, 0x32, 0x3e, 0x51, 0x30, 0xea, 0x3d, 
    0xff, 0x91, 0xbe, 0x3e, 0x3c, 0x96, 0x61, 0x3e, 0x49, 0x1c, 0xba, 0xbe, 
    0xe9, 0xfe, 0x97, 0x3e, 0x92, 0x5b, 0xef, 0x3d, 0x53, 0xdc, 0xe1, 0x3d, 
    0x40, 0x96, 0x80, 0x3e, 0x33, 0xba, 0x2c, 0x3e, 0x28, 0x7f, 0xfa, 0x3c, 
    0x4b, 0xee, 0x1b, 0x3e, 0x7b, 0xdc, 0xd9, 0x3d, 0xde, 0x41, 0x8f, 0x3e, 
    0x7e, 0xc8, 0xa7, 0xbd, 0xf2, 0x8d, 0x31, 0x3e, 0x32, 0xb0, 0x5d, 0xbd, 
    0x30, 0xff, 0x92, 0x3e, 0x4e, 0xa8, 0x74, 0x3e, 0xdf, 0x28, 0x83, 0x3e, 
    0x8e, 0x7a, 0xd4, 0xbd, 0xdd, 0x06, 0x14, 0x3d, 0x62, 0x30, 0x51, 0x3d, 
    0xd3, 0xba, 0xc0, 0xbc, 0x8a, 0x51, 0xb4, 0x3e, 0x39, 0xda, 0x1d, 0x3d, 
    0x63, 0x71, 0xbb, 0x3b, 0x29, 0x65, 0xca, 0x3e, 0x90, 0x2a, 0x88, 0x3e, 
    0x4e, 0x93, 0x43, 0xbd, 0x24, 0x46, 0x5e, 0x3e, 0x5c, 0xb4, 0x48, 0x3d, 
    0xb6, 0x4b, 0x42, 0x3b, 0x0d, 0x76, 0x90, 0xbc, 0xb5, 0x73, 0xeb, 0x3e, 
    0x17, 0x85, 0xd3, 0x3c, 0xb3, 0xe1, 0x59, 0xbe, 0xed, 0x07, 0xfd, 0x3e, 
    0xdb, 0x94, 0xb7, 0x3e, 0xd7, 0x4b, 0x9e, 0x3e, 0x4d, 0xec, 0xbc, 0x3d, 
    0x55, 0x50, 0x66, 0x3e, 0x87, 0xce, 0xbd, 0x3e, 0xd5, 0x51, 0xb6, 0x3e, 
    0xc3, 0x14, 0x3a, 0x3d, 0x60, 0x44, 0x9e, 0x3e, 0x24, 0x39, 0x29, 0xbe, 
    0x5a, 0xa8, 0x9b, 0x3d, 0x55, 0xdc, 0x26, 0xbd, 0xa4, 0x4c, 0xa8, 0xbd, 
    0xc3, 0x27, 0xe0, 0x3e, 0xdf, 0x5c, 0x05, 0x3f, 0xd0, 0xdc, 0xb2, 0xbc, 
    0x63, 0x58, 0x95, 0x3e, 0xf6, 0x7f, 0xd9, 0xbd, 0x43, 0x29, 0xbf, 0x3e, 
    0x19, 0x09, 0xca, 0x3e, 0x2d, 0xe2, 0xa2, 0x3b, 0x3f, 0x5c, 0x1a, 0x3e, 
    0x0a, 0x81, 0x22, 0x3e, 0x10, 0x39, 0xb4, 0x3e, 0x06, 0x87, 0x3f, 0x3c, 
    0x46, 0x34, 0xaa, 0x3e, 0x2e, 0x80, 0x0d, 0x3e, 0xdb, 0x27, 0x70, 0xbd, 
    0xd0, 0xfb, 0x2a, 0x3c, 0xa7, 0xa9, 0xf1, 0x3e, 0xcb, 0x66, 0x81, 0xbd, 
    0x24, 0xd1, 0xb3, 0x3e, 0xd3, 0x64, 0x4b, 0x3e, 0x83, 0x77, 0xb7, 0x3c, 
    0x8d, 0x7a, 0xeb, 0x3d, 0x5c, 0x86, 0xd6, 0x3e, 0x7a, 0xf5, 0xd9, 0xbe, 
    0xf0, 0x48, 0x21, 0xbc, 0x0e, 0xa0, 0xc8, 0x3e, 0xe4, 0x11, 0x4c, 0xbf, 
    0xb3, 0xad, 0x63, 0x3d, 0xed, 0x72, 0x83, 0x3e, 0x4a, 0x52, 0x0b, 0x3e, 
    0xe2, 0x1a, 0x13, 0x3e, 0x54, 0xa4, 0x9c, 0xbe, 0x33, 0x15, 0x79, 0x3e, 
    0x1b, 0xe5, 0x1f, 0x3f, 0xc7, 0x17, 0x95, 0xbd, 0x49, 0x74, 0xcb, 0xbe, 
    0x46, 0x84, 0x3e, 0xbd, 0x4f, 0x84, 0xc4, 0x3c, 0xcb, 0xcc, 0x05, 0x3e, 
    0xc6, 0x26, 0xb2, 0xbb, 0x90, 0xa6, 0x42, 0xbf, 0xad, 0xe3, 0x8d, 0x3e, 
    0xe2, 0x1c, 0x33, 0xbf, 0x00, 0x4b, 0x8f, 0x3c, 0x0d, 0x5c, 0x31, 0xbe, 
    0x86, 0xf7, 0x2c, 0x3d, 0x9a, 0xf5, 0xb6, 0x3e, 0xd6, 0x08, 0xc9, 0xbd, 
    0x4d, 0xcc, 0x69, 0xbe, 0x10, 0xf2, 0xfb, 0x3e, 0x77, 0x74, 0xd9, 0x3e, 
    0xfc, 0xa8, 0x87, 0x3e, 0x78, 0xa7, 0x8d, 0x3e, 0x04, 0x1d, 0x9e, 0x3e, 
    0x04, 0x9a, 0x79, 0x3e, 0xe6, 0x28, 0x41, 0x3e, 0x71, 0x93, 0xac, 0x3e, 
    0xee, 0x56, 0x9d, 0x3e, 0xc8, 0x7a, 0x81, 0xbe, 0x84, 0xdf, 0x64, 0x3e, 
    0x64, 0x08, 0x74, 0x3e, 0x7d, 0x54, 0x63, 0x3d, 0x8a, 0x6f, 0x89, 0x3e, 
    0x12, 0x98, 0x5b, 0x3c, 0x17, 0x84, 0x3f, 0x3e, 0xe2, 0x5a, 0xc1, 0x3e, 
    0x15, 0x0c, 0x29, 0xbc, 0x03, 0xab, 0x55, 0x3e, 0xe6, 0x0d, 0x0e, 0x3e, 
    0x29, 0x73, 0x80, 0x3e, 0x9c, 0xef, 0xd2, 0x3e, 0x11, 0x2f, 0xcb, 0x3d, 
    0xf0, 0xd0, 0xf3, 0xbe, 0x78, 0xaa, 0xdf, 0x3d, 0xfe, 0x4e, 0x8c, 0x3e, 
    0x48, 0x2f, 0xb4, 0x3d, 0xbd, 0x5a, 0xe1, 0x3e, 0x82, 0xa9, 0xbe, 0xbd, 
    0x8d, 0x4c, 0x1d, 0x3e, 0x66, 0xbe, 0x8d, 0x3b, 0x21, 0x6e, 0x8f, 0xbe, 
    0x38, 0xe6, 0x2f, 0x3e, 0xb7, 0xe0, 0xfa, 0x3c, 0xd7, 0xb8, 0x75, 0x3e, 
    0xca, 0xd1, 0xa8, 0x3e, 0xc0, 0x5f, 0xc0, 0x3e, 0x2c, 0x62, 0x00, 0x3e, 
    0xb7, 0x73, 0x90, 0x3e, 0xc7, 0xf9, 0xf4, 0x3d, 0x5e, 0x50, 0xad, 0x3e, 
    0x2f, 0xd2, 0xa0, 0xbe, 0x24, 0x14, 0x6a, 0x3d, 0xb4, 0xd7, 0x3b, 0x3e, 
    0x41, 0x0e, 0x1a, 0xbd, 0x42, 0x86, 0x13, 0x3f, 0xcc, 0x1f, 0xe8, 0x3c, 
    0x12, 0x69, 0x1a, 0x3f, 0x59, 0x1a, 0xd6, 0x3e, 0xc5, 0xb5, 0xb1, 0x3d, 
    0x8b, 0x91, 0x2a, 0x3e, 0xda, 0x24, 0x10, 0xbe, 0xbb, 0x79, 0xcb, 0x3e, 
    0x9a, 0x99, 0xfd, 0x3e, 0x5a, 0x67, 0xcc, 0x3c, 0xa7, 0x03, 0x80, 0xbf, 
    0xc0, 0xd0, 0xe0, 0x3b, 0x65, 0x7d, 0xbc, 0x3e, 0xaf, 0x64, 0xc4, 0xbd, 
    0x74, 0x50, 0x82, 0x3e, 0x6e, 0x9d, 0x49, 0x3d, 0x34, 0xa1, 0x84, 0x3e, 
    0x22, 0xba, 0x10, 0xbe, 0x0e, 0x05, 0x22, 0xbe, 0x6a, 0xc4, 0xa9, 0x3e, 
    0xfe, 0xf5, 0xff, 0xff, 0x04, 0x00, 0x00, 0x00, 0x00, 0x08, 0x00, 0x00, 
    0xf0, 0x5d, 0xbb, 0xbd, 0x6f, 0xe7, 0x0b, 0xbe, 0x80, 0x96, 0x6d, 0x3e, 
    0x9c, 0x9b, 0x2e, 0x3c, 0x71, 0x80, 0x8e, 0xbe, 0x26, 0xda, 0x12, 0xbe, 
    0xc6, 0x2c, 0x72, 0x3e, 0xe1, 0x6e, 0xe1, 0x3d, 0x2a, 0xa1, 0x95, 0x3d, 
    0xea, 0x25, 0x3f, 0xbe, 0x81, 0x3e, 0xad, 0xbe, 0xed, 0x88, 0x6a, 0xbe, 
    0x8a, 0x91, 0x38, 0x3d, 0xb5, 0x0c, 0x52, 0x3e, 0xbe, 0x60, 0x6a, 0xbe, 
    0x91, 0x63, 0x77, 0xbe, 0x67, 0xec, 0xf0, 0xbd, 0x4e, 0xf0, 0x82, 0x3d, 
    0x8d, 0xec, 0xbf, 0xbd, 0x90, 0xab, 0xab, 0xbe, 0xb7, 0x0b, 0x53, 0xbe, 
    0x2f, 0x2c, 0x1d, 0xbe, 0x40, 0x20, 0x9b, 0x3c, 0x45, 0xf1, 0x06, 0x3e, 
    0x69, 0x42, 0x0c, 0x3e, 0xa3, 0xf2, 0xec, 0x3d, 0x9f, 0xda, 0x08, 0xbe, 
    0xdd, 0xbd, 0x3e, 0x3e, 0xf0, 0x57, 0xa0, 0x3e, 0xa9, 0x4a, 0xae, 0x3c, 
    0x08, 0x3a, 0x43, 0xbe, 0x2e, 0x6d, 0x89, 0x3e, 0xaa, 0xe0, 0x1f, 0xbf, 
    0x5c, 0x7a, 0xe5, 0x3e, 0x5f, 0x67, 0x06, 0xbf, 0x2e, 0xe8, 0x98, 0xbe, 
    0xb0, 0x4e, 0x59, 0x3c, 0xc8, 0xe6, 0x2e, 0x3e, 0xa5, 0x3d, 0xaf, 0xbd, 
    0x2f, 0xec, 0x1b, 0x3f, 0x2d, 0x3b, 0xc0, 0x3e, 0xa1, 0x42, 0x05, 0x3f, 
    0x89, 0xd2, 0x13, 0xbe, 0x6e, 0x78, 0x1b, 0x3f, 0xca, 0xcd, 0xa0, 0xbe, 
    0xdc, 0x23, 0xc8, 0x3e, 0x19, 0x2f, 0x2c, 0xbf, 0x40, 0x63, 0x96, 0x3e, 
    0xde, 0x48, 0x93, 0x3e, 0x45, 0x74, 0x09, 0x3f, 0xee, 0xc1, 0xc9, 0x3d, 
    0x8d, 0x98, 0xcc, 0xbe, 0x70, 0x42, 0x14, 0xbf, 0x00, 0x7a, 0xb3, 0xbc, 
    0x62, 0x10, 0x95, 0x3d, 0x45, 0xd3, 0xd0, 0x3d, 0x56, 0x35, 0xbc, 0x3e, 
    0x47, 0x8b, 0x21, 0xbe, 0x6a, 0xf1, 0x3f, 0xbe, 0x05, 0x0e, 0xf5, 0xbd, 
    0x07, 0xe6, 0xcb, 0x3e, 0x3c, 0x9e, 0x93, 0x3d, 0xd9, 0xc2, 0x94, 0x3e, 
    0xd4, 0x75, 0x9d, 0x3e, 0x10, 0x76, 0x3e, 0xbd, 0x1f, 0xa6, 0xe7, 0xbe, 
    0xd9, 0x56, 0xa7, 0xbe, 0xa6, 0x03, 0x88, 0xbe, 0x2f, 0xf9, 0x96, 0xbe, 
    0xe8, 0x20, 0xcd, 0x3d, 0x40, 0x1c, 0xcb, 0x3d, 0xac, 0xdd, 0x84, 0x3e, 
    0x4f, 0x75, 0xf1, 0xbc, 0x30, 0xdc, 0x38, 0x3d, 0x0f, 0x1e, 0x4f, 0x3d, 
    0x41, 0xf8, 0x0c, 0x3d, 0x61, 0xb2, 0x76, 0x3e, 0x68, 0x4a, 0x90, 0x3e, 
    0xa1, 0x44, 0x99, 0xbe, 0xda, 0xee, 0xc6, 0xbd, 0x6d, 0xa9, 0x88, 0x3c, 
    0x3d, 0xce, 0x87, 0xbe, 0xd9, 0xd9, 0x7d, 0xbd, 0xb8, 0x7c, 0x94, 0xbe, 
    0xc2, 0x69, 0x24, 0x3e, 0xef, 0xd1, 0x32, 0x3d, 0xe3, 0xc2, 0x01, 0xbe, 
    0xa8, 0x93, 0xa9, 0x3d, 0xbf, 0x6c, 0x29, 0xbe, 0xd7, 0x63, 0x20, 0xbe, 
    0x7a, 0xd4, 0x24, 0x3e, 0xf4, 0x4a, 0xa2, 0xbe, 0x31, 0xa4, 0xc1, 0xbe, 
    0xc0, 0x37, 0x9a, 0xbe, 0x49, 0x0b, 0x46, 0x3d, 0xa9, 0x4a, 0x90, 0xbe, 
    0xc3, 0x25, 0x39, 0xbf, 0x4d, 0x44, 0x22, 0x3e, 0xa5, 0xa7, 0x2a, 0x3d, 
    0xad, 0x5b, 0x5d, 0x3d, 0x22, 0x0a, 0x30, 0x3d, 0x64, 0x0a, 0xb3, 0xbe, 
    0x39, 0x51, 0x9a, 0xbe, 0x52, 0x40, 0x9c, 0xbd, 0xb2, 0xc7, 0x78, 0x3f, 
    0x60, 0xf1, 0x59, 0xbe, 0x39, 0xae, 0xdc, 0xbe, 0x59, 0x9c, 0xa2, 0xbd, 
    0xb3, 0x34, 0xb8, 0xbe, 0x15, 0x9f, 0x29, 0xbf, 0xc4, 0x4b, 0xbd, 0x3d, 
    0x10, 0x83, 0x51, 0x3d, 0xfa, 0x96, 0x01, 0xbe, 0xcc, 0x1a, 0x50, 0xbe, 
    0xd4, 0x2c, 0xd2, 0x3d, 0xbd, 0xe8, 0x3d, 0xbe, 0x2f, 0x1f, 0x02, 0xbe, 
    0x53, 0x6f, 0xac, 0x3e, 0x22, 0x28, 0x4f, 0x3f, 0x27, 0x6e, 0xb8, 0xbe, 
    0xde, 0x27, 0xd2, 0xbd, 0x48, 0x59, 0x99, 0xbe, 0x54, 0x86, 0x6f, 0x3e, 
    0x00, 0xf8, 0xc3, 0x3d, 0xa0, 0x60, 0x67, 0xbf, 0xce, 0x34, 0x8f, 0xbd, 
    0x4d, 0x9a, 0x4a, 0x3e, 0x5c, 0xbb, 0x52, 0xbf, 0x78, 0xe2, 0x85, 0xbf, 
    0xf6, 0xa4, 0xbd, 0x3e, 0x75, 0x60, 0x89, 0xbe, 0xce, 0x67, 0x74, 0xbe, 
    0xf8, 0x02, 0x21, 0xbe, 0xe5, 0x83, 0xa6, 0x3e, 0xf4, 0x5f, 0x5d, 0xbf, 
    0x13, 0x52, 0x73, 0x3e, 0xa7, 0xa0, 0xa6, 0xbe, 0x4b, 0x47, 0xd9, 0x3e, 
    0x0c, 0xce, 0xc7, 0xbe, 0xaf, 0xa8, 0xd2, 0x3e, 0xee, 0x4f, 0x9f, 0x3d, 
    0x54, 0xfe, 0x22, 0xbf, 0x41, 0x0c, 0x59, 0x3e, 0xd1, 0x8d, 0x9c, 0xbd, 
    0x8c, 0x21, 0xc6, 0x3d, 0x0d, 0x02, 0x33, 0xbc, 0x20, 0xe1, 0x92, 0xbe, 
    0xdc, 0x92, 0x1e, 0xbe, 0x24, 0x56, 0x9a, 0xbd, 0xea, 0x7d, 0x80, 0xbd, 
    0xd2, 0x6d, 0xa9, 0xbe, 0x35, 0xa6, 0x0e, 0x3e, 0xd4, 0xd1, 0x4c, 0x3d, 
    0xb1, 0x4c, 0x3d, 0xbd, 0x03, 0x20, 0x24, 0x3f, 0x43, 0xdf, 0x7c, 0xbe, 
    0x4a, 0x79, 0x3f, 0xbf, 0x9c, 0x9c, 0x05, 0x3e, 0xe7, 0xea, 0x81, 0xbf, 
    0x72, 0xe8, 0x03, 0xbf, 0x98, 0x99, 0x1f, 0xbd, 0x02, 0xce, 0xc0, 0x3e, 
    0x46, 0x62, 0x1a, 0xbb, 0xc8, 0x86, 0xb4, 0xbd, 0x05, 0x04, 0x8c, 0xbe, 
    0xb4, 0x36, 0x55, 0xbf, 0x49, 0xfa, 0x09, 0x3f, 0xa9, 0x7c, 0xad, 0x3e, 
    0x91, 0x5f, 0x39, 0x3f, 0x9e, 0xd2, 0x80, 0xbe, 0x99, 0x58, 0xd1, 0xbd, 
    0x68, 0xb5, 0xc0, 0x3e, 0xfb, 0x4d, 0x55, 0xbe, 0x83, 0xe5, 0xfc, 0x3e, 
    0xb3, 0xdb, 0x71, 0x3e, 0xdc, 0x7e, 0x33, 0x3e, 0x0b, 0xf1, 0x76, 0xbe, 
    0x7c, 0x11, 0xad, 0xbe, 0x88, 0x43, 0x79, 0xbe, 0x27, 0xf6, 0x7a, 0x3e, 
    0xe8, 0x60, 0xc1, 0xbd, 0x56, 0x9e, 0x71, 0x3e, 0x17, 0x8a, 0x12, 0x3f, 
    0xf2, 0xab, 0x5b, 0xbe, 0x47, 0xc1, 0x3d, 0xbf, 0x55, 0x71, 0x22, 0xbb, 
    0xf5, 0x36, 0x07, 0xbf, 0xb8, 0xb1, 0x93, 0xbe, 0xb5, 0xcb, 0x8e, 0x3e, 
    0xbb, 0x01, 0xb3, 0x3c, 0x60, 0x3d, 0xc9, 0x3e, 0x4b, 0x35, 0x9d, 0x3c, 
    0x62, 0xd8, 0x79, 0xbe, 0x41, 0x76, 0xcb, 0xbe, 0x72, 0xf5, 0xc3, 0xbe, 
    0x6e, 0x4d, 0x5b, 0xbd, 0x99, 0x32, 0xb2, 0x3e, 0xe1, 0xac, 0x5c, 0x3e, 
    0xea, 0x38, 0x13, 0xbd, 0x89, 0x1a, 0x83, 0x3e, 0x13, 0xb4, 0x25, 0x3e, 
    0x62, 0xf8, 0x70, 0xbd, 0xa7, 0x5b, 0x8f, 0x3d, 0xdc, 0x0d, 0x06, 0x3d, 
    0x60, 0x01, 0x51, 0x3e, 0x8e, 0x6d, 0xef, 0xbe, 0xb0, 0x6c, 0x87, 0x3e, 
    0x45, 0xa0, 0x7e, 0x3e, 0xd6, 0xa5, 0x94, 0xbd, 0xd4, 0x63, 0x32, 0x3f, 
    0x14, 0x75, 0x72, 0xbe, 0xfd, 0xf2, 0x56, 0xbe, 0x81, 0xb5, 0x1f, 0x3d, 
    0x51, 0xde, 0xa7, 0xbd, 0x52, 0xcd, 0x84, 0xbe, 0xe8, 0xcb, 0xc2, 0xbd, 
    0xab, 0x05, 0x53, 0x3f, 0x22, 0x3f, 0x94, 0xbd, 0xe0, 0xc6, 0x01, 0x3f, 
    0x86, 0x7a, 0x3f, 0xbe, 0x60, 0xaa, 0xf6, 0x3e, 0x9d, 0x0b, 0x88, 0x3e, 
    0xe3, 0x18, 0x6e, 0xbf, 0x10, 0xff, 0x2a, 0x3f, 0x9d, 0x54, 0x30, 0xbe, 
    0x22, 0xaf, 0xc8, 0x3e, 0x0c, 0x9b, 0x54, 0xbd, 0x0b, 0x64, 0x35, 0x3e, 
    0x89, 0x67, 0xfa, 0x3e, 0x49, 0x3d, 0x4a, 0xbf, 0xfc, 0xbc, 0xe7, 0x3c, 
    0x7d, 0x6c, 0x83, 0x3c, 0xb1, 0xb6, 0xd4, 0x3d, 0x65, 0x24, 0x4d, 0x3e, 
    0x3f, 0x51, 0xb2, 0x3c, 0xa4, 0x96, 0x93, 0x3e, 0xf0, 0x93, 0xfd, 0xbe, 
    0x2f, 0x94, 0x20, 0xbf, 0xd2, 0x2f, 0xce, 0x3e, 0xfd, 0xd8, 0x38, 0xbe, 
    0xe0, 0xa2, 0x30, 0x3e, 0xa3, 0x81, 0x48, 0xbf, 0xea, 0x08, 0xec, 0xbd, 
    0x5f, 0x8c, 0xb5, 0xbc, 0x9a, 0xb0, 0x94, 0x3e, 0x05, 0x4a, 0x78, 0xbd, 
    0x2f, 0xf2, 0x04, 0x3f, 0x26, 0xd3, 0xd8, 0x3e, 0xa3, 0x9c, 0x87, 0xbf, 
    0xe9, 0xce, 0x6e, 0xbd, 0x34, 0x31, 0x3c, 0xbf, 0x32, 0x5a, 0x81, 0xbe, 
    0xa3, 0x9b, 0x88, 0xbe, 0xfa, 0xd8, 0x5c, 0xbd, 0x88, 0xbb, 0x7e, 0xbe, 
    0x58, 0xd8, 0xa7, 0x3e, 0x40, 0x4a, 0x26, 0xbd, 0x74, 0xe9, 0xe3, 0x3e, 
    0x43, 0xaf, 0x90, 0xbd, 0xa6, 0x50, 0x86, 0x3e, 0x17, 0x88, 0x10, 0x3e, 
    0x66, 0xed, 0x10, 0x3f, 0x98, 0xfb, 0x57, 0xbe, 0x17, 0x32, 0x0d, 0xbe, 
    0x84, 0x17, 0x65, 0xbd, 0xf7, 0x3d, 0xad, 0x3e, 0xe4, 0x77, 0x7d, 0x3d, 
    0xfc, 0xb9, 0x64, 0x3e, 0x24, 0x3e, 0x8e, 0xbe, 0x40, 0x4d, 0x07, 0x3e, 
    0xb9, 0x01, 0xaa, 0x3e, 0xc7, 0xdb, 0x23, 0x3e, 0x96, 0x4c, 0x99, 0x3e, 
    0x53, 0x69, 0x1f, 0x3f, 0x17, 0x50, 0x72, 0x3e, 0x94, 0xaf, 0xd1, 0x3b, 
    0x63, 0xb8, 0x91, 0xbe, 0x3c, 0x5d, 0x5b, 0xbe, 0x3a, 0x6e, 0x4d, 0xbe, 
    0xcb, 0x5f, 0x17, 0x3c, 0xfd, 0x06, 0x0d, 0x3e, 0xa6, 0xb1, 0x95, 0x3e, 
    0xce, 0x3b, 0x98, 0x3e, 0x90, 0x88, 0x83, 0x3e, 0xd5, 0xb2, 0x18, 0xbe, 
    0xaa, 0x6d, 0xe9, 0xbd, 0xdd, 0x48, 0x5b, 0x3d, 0x6c, 0xc6, 0x9a, 0x3e, 
    0x93, 0x4d, 0x70, 0x3f, 0xf2, 0x4c, 0xe5, 0x3e, 0x6c, 0x3a, 0x5e, 0x3e, 
    0xce, 0x5f, 0x6d, 0x3e, 0x3e, 0x56, 0x11, 0xbe, 0x2b, 0xac, 0xc5, 0xbe, 
    0xf3, 0x22, 0xb7, 0x3e, 0xcb, 0x34, 0x8b, 0x3e, 0xd4, 0x80, 0x06, 0x3d, 
    0x62, 0xc8, 0xd7, 0x3d, 0x88, 0x3b, 0xa5, 0x3d, 0xcd, 0x44, 0x28, 0x3e, 
    0x62, 0xd8, 0x4a, 0xbf, 0x0c, 0x28, 0x79, 0x3f, 0x32, 0x96, 0x11, 0xbd, 
    0xbc, 0x50, 0x3a, 0x3e, 0x83, 0x8d, 0x7c, 0xbe, 0x19, 0xf7, 0x1e, 0xbf, 
    0x21, 0xb2, 0x9d, 0x3d, 0xed, 0x44, 0xde, 0xbd, 0xdf, 0x3f, 0xa0, 0x3e, 
    0xb4, 0xde, 0x92, 0xbe, 0xee, 0x92, 0x9f, 0x3e, 0x2c, 0x63, 0xee, 0x3e, 
    0x44, 0x8f, 0x7a, 0xbf, 0x8d, 0xb3, 0xe9, 0xbd, 0xad, 0xce, 0x02, 0xbe, 
    0x7f, 0x4d, 0x3f, 0xbe, 0xf6, 0x90, 0x89, 0xbf, 0x71, 0x59, 0x92, 0xbe, 
    0xdb, 0x8c, 0x37, 0x3e, 0x6b, 0xed, 0x16, 0xbf, 0xbb, 0x03, 0x22, 0x3f, 
    0x73, 0x75, 0xb9, 0x3e, 0xcd, 0xac, 0x0c, 0x3f, 0x38, 0x39, 0x13, 0x3f, 
    0x3b, 0xe3, 0xd1, 0x3b, 0x11, 0x2a, 0xa2, 0xbe, 0xc4, 0xd6, 0x31, 0x3e, 
    0x29, 0x28, 0x4d, 0x3e, 0xaf, 0x61, 0xc3, 0xbd, 0x84, 0xb8, 0xac, 0x3e, 
    0x03, 0x63, 0x9f, 0x3e, 0x19, 0xbe, 0x96, 0xbd, 0xa6, 0xf6, 0x2e, 0xbe, 
    0x30, 0xe3, 0x97, 0x3f, 0x68, 0x56, 0xf0, 0x3e, 0xde, 0x41, 0x01, 0x3f, 
    0xd1, 0xa0, 0xa7, 0x3e, 0xa5, 0x36, 0xa3, 0xbd, 0x1b, 0x5d, 0x95, 0xbe, 
    0x41, 0x53, 0x2b, 0x3e, 0xb9, 0xe1, 0xfe, 0x3e, 0x9f, 0x36, 0xeb, 0x3d, 
    0xe1, 0xc3, 0x64, 0xbe, 0xc5, 0x91, 0x89, 0xbe, 0xfd, 0x5f, 0xd5, 0xbe, 
    0xfc, 0x0a, 0xd2, 0xbd, 0xa9, 0x8c, 0x27, 0xbf, 0xa9, 0x0f, 0x3c, 0xbc, 
    0xa8, 0x96, 0xaa, 0xbe, 0xc2, 0x43, 0xe6, 0x3c, 0xa8, 0xf3, 0xc4, 0x3f, 
    0x41, 0xda, 0xb1, 0xbd, 0xa4, 0xa4, 0x4e, 0xbf, 0x62, 0xdf, 0xe4, 0xbc, 
    0x5f, 0x57, 0x99, 0xbd, 0x5a, 0xb2, 0x5a, 0xbc, 0x99, 0x55, 0xbd, 0xbe, 
    0xc2, 0x5a, 0x9b, 0x3e, 0x5f, 0xae, 0x90, 0x3e, 0xbf, 0x45, 0xe4, 0x3e, 
    0x20, 0xfc, 0x5b, 0xbf, 0xc1, 0x3f, 0xbb, 0x3e, 0x18, 0x5d, 0xb0, 0xbe, 
    0x98, 0x90, 0x1a, 0x3e, 0xa8, 0x80, 0xb4, 0x3e, 0xdb, 0x51, 0xc3, 0xbc, 
    0xcf, 0xc3, 0x87, 0xbe, 0x3f, 0x23, 0xdd, 0x3e, 0x7c, 0xb5, 0xbc, 0x3e, 
    0x5a, 0xb2, 0xe8, 0x3e, 0x43, 0xcd, 0xbc, 0x3d, 0x92, 0xa6, 0x9d, 0x39, 
    0xc4, 0xc2, 0xb5, 0xbd, 0x46, 0xb6, 0x92, 0xbe, 0x5e, 0x2e, 0xdb, 0xbe, 
    0xee, 0x74, 0xa1, 0x3d, 0xa7, 0x50, 0xe5, 0xbd, 0x6b, 0x50, 0x72, 0x3d, 
    0xe8, 0x43, 0x1c, 0x3f, 0xf6, 0x67, 0x25, 0x3e, 0x31, 0x1d, 0x90, 0xbe, 
    0x68, 0xc7, 0x72, 0xbe, 0x08, 0x72, 0xc9, 0xbe, 0xad, 0x01, 0x03, 0xbf, 
    0xa1, 0xe2, 0x2e, 0x3f, 0xd8, 0x21, 0xd0, 0x3e, 0x8e, 0x4e, 0x2e, 0x3e, 
    0xd1, 0x10, 0xdb, 0x3e, 0x73, 0x4c, 0x87, 0x3e, 0x6c, 0xc1, 0xf2, 0x3c, 
    0xd4, 0xb2, 0x39, 0xbe, 0xa3, 0xb0, 0x2e, 0x3e, 0x3e, 0xba, 0xfa, 0x3c, 
    0x21, 0xef, 0x07, 0xbe, 0xfb, 0x09, 0x57, 0x3c, 0x67, 0xb1, 0x19, 0xbe, 
    0x15, 0xf2, 0x9b, 0x3e, 0x85, 0x57, 0xfa, 0x3e, 0x81, 0x6a, 0x12, 0xbd, 
    0x94, 0x67, 0xe8, 0x3e, 0x6c, 0xda, 0x86, 0x3e, 0x0e, 0xc9, 0xac, 0xbc, 
    0x9f, 0x5f, 0x9f, 0x3e, 0x54, 0x30, 0x2f, 0x3e, 0x2f, 0xc0, 0x91, 0x3e, 
    0x71, 0xca, 0xf1, 0xbc, 0x52, 0xa1, 0x0c, 0x3d, 0xd4, 0xb6, 0xc4, 0xbd, 
    0x67, 0x80, 0x6f, 0xbe, 0xc5, 0x68, 0x3a, 0x3e, 0x67, 0x9e, 0x74, 0xbe, 
    0xba, 0xb3, 0x37, 0x3d, 0xdc, 0xc9, 0x1d, 0x3d, 0xb5, 0x69, 0xfe, 0x3d, 
    0x72, 0xbc, 0x40, 0x3f, 0xdb, 0x3b, 0xba, 0x3e, 0xaa, 0x3f, 0x4a, 0xbf, 
    0xe3, 0x49, 0x6c, 0x3c, 0x36, 0xf9, 0x8b, 0xbe, 0x10, 0x74, 0x25, 0xbe, 
    0xc1, 0xb9, 0x83, 0x3e, 0x69, 0x00, 0xde, 0x3e, 0x76, 0xae, 0xff, 0xbe, 
    0xd8, 0x66, 0x00, 0x3e, 0x09, 0xe4, 0x0a, 0x3d, 0xd4, 0x48, 0x6c, 0x3e, 
    0x8d, 0xed, 0x39, 0x3e, 0x40, 0x38, 0x97, 0x3e, 0x15, 0xe3, 0x10, 0xbe, 
    0xb7, 0xed, 0x81, 0xbe, 0xe3, 0x67, 0x7d, 0xbd, 0xc5, 0x37, 0xa3, 0x3e, 
    0x3f, 0x1b, 0xf4, 0x3e, 0x55, 0x46, 0x33, 0x3d, 0xe3, 0x41, 0x13, 0xbe, 
    0xbe, 0x69, 0xdc, 0xbc, 0xfb, 0xed, 0x88, 0x3e, 0x57, 0x5a, 0x82, 0xbe, 
    0x4f, 0xdd, 0x9f, 0xbd, 0xfd, 0x05, 0x03, 0x3f, 0x17, 0x07, 0x73, 0x3e, 
    0xcc, 0x94, 0xa1, 0x3e, 0xc0, 0x30, 0x8e, 0x3e, 0xb2, 0xb5, 0xe7, 0x3c, 
    0x41, 0x68, 0xa2, 0xbe, 0x94, 0xc9, 0xd0, 0x3d, 0xe3, 0xa4, 0xb8, 0x3d, 
    0x79, 0x46, 0xba, 0xbe, 0x2f, 0x3b, 0x03, 0x3f, 0xd2, 0x98, 0x83, 0xbe, 
    0x6c, 0x61, 0x81, 0x3e, 0xf9, 0xff, 0xa9, 0xbe, 0xe9, 0x1a, 0x34, 0xbe, 
    0x22, 0x17, 0x0f, 0xbf, 0xbd, 0xe2, 0x83, 0xbe, 0xf0, 0xca, 0x86, 0xbe, 
    0xe7, 0x55, 0x65, 0x3e, 0xed, 0x2d, 0x3b, 0x3b, 0xf7, 0x99, 0x30, 0x3f, 
    0xfb, 0x9b, 0x50, 0x3e, 0xd3, 0x0c, 0x9e, 0x3f, 0xf2, 0x6b, 0x93, 0xbd, 
    0x0e, 0xa3, 0x6a, 0x3e, 0xdd, 0xdc, 0x86, 0xbe, 0x91, 0xb4, 0x7c, 0xbc, 
    0xf1, 0xc7, 0x61, 0xbe, 0x2c, 0x65, 0x94, 0xbe, 0x81, 0x06, 0xc4, 0x3d, 
    0xb4, 0x09, 0x58, 0xbb, 0xff, 0x75, 0xc1, 0x3e, 0xf2, 0x1c, 0x27, 0x3f, 
    0x32, 0x7a, 0x83, 0xbe, 0xd1, 0xfc, 0x1a, 0xbf, 0x26, 0x7b, 0x35, 0xbe, 
    0xa6, 0xab, 0xad, 0x3d, 0x8c, 0x1b, 0x56, 0x3e, 0x15, 0x24, 0x83, 0x3f, 
    0xd9, 0x1b, 0x9c, 0x3e, 0xcb, 0xae, 0x24, 0x3f, 0x2c, 0x51, 0x39, 0x3f, 
    0x4a, 0xf0, 0xde, 0x3e, 0x95, 0x92, 0x69, 0x3e, 0x5b, 0x2a, 0xab, 0x3e, 
    0x6d, 0x49, 0xd4, 0x3e, 0x2c, 0xd9, 0xd8, 0x3e, 0xcd, 0x1f, 0xa3, 0xbe, 
    0xf5, 0xdd, 0x40, 0x3e, 0x70, 0xa7, 0xdc, 0xbe, 0x35, 0xd9, 0x5c, 0x3e, 
    0x3b, 0x2a, 0x25, 0x3e, 0x23, 0x69, 0x9e, 0x3e, 0xe9, 0x0d, 0x88, 0x3e, 
    0x6b, 0x98, 0xc5, 0xbd, 0x49, 0xdc, 0x28, 0x3f, 0x21, 0x25, 0xe4, 0x3c, 
    0x9b, 0x29, 0x67, 0x3e, 0x2a, 0x5c, 0xaa, 0xbd, 0x3b, 0x8c, 0xa0, 0xbe, 
    0x07, 0xda, 0x25, 0xbd, 0xcf, 0xb4, 0xae, 0x3e, 0x9c, 0xad, 0x86, 0x3d, 
    0x20, 0x59, 0xfc, 0xbc, 0x36, 0x81, 0xca, 0x3b, 0x89, 0xed, 0xa0, 0x3d, 
    0x27, 0xab, 0x2c, 0xbd, 0xf5, 0x45, 0xa3, 0xbe, 0xe8, 0xd9, 0x7e, 0xbe, 
    0x67, 0x0c, 0x82, 0xbe, 0x52, 0xee, 0x91, 0xbe, 0x04, 0x44, 0x23, 0x3e, 
    0x99, 0x42, 0x54, 0xbe, 0x53, 0x66, 0x06, 0xbf, 0x0a, 0xfe, 0xff, 0xff, 
    0x04, 0x00, 0x00, 0x00, 0x80, 0x00, 0x00, 0x00, 0x2a, 0x9f, 0x37, 0xbd, 
    0x38, 0xf5, 0xab, 0x3e, 0x65, 0x17, 0xeb, 0x3d, 0x20, 0xc8, 0x42, 0x3e, 
    0x16, 0x1d, 0xd3, 0xbb, 0x50, 0xb6, 0xa8, 0xbe, 0xec, 0xeb, 0x2f, 0x3d, 
    0xbf, 0xe0, 0x93, 0x3e, 0x06, 0x8e, 0xb0, 0xbd, 0x0f, 0xe7, 0x38, 0x3e, 
    0xab, 0xf0, 0x7d, 0xbd, 0xa5, 0xe1, 0x63, 0x3e, 0x96, 0x88, 0xc8, 0x3d, 
    0xc5, 0xa3, 0x7c, 0x3e, 0xdf, 0x2e, 0x13, 0xbe, 0xb1, 0xf8, 0xc6, 0x3e, 
    0xe8, 0x49, 0x94, 0xbc, 0x83, 0x82, 0x92, 0xbe, 0x6d, 0x14, 0xd0, 0xbb, 
    0x52, 0x80, 0x3b, 0x3d, 0x56, 0x33, 0xcb, 0x3d, 0x2e, 0x39, 0x8c, 0xbc, 
    0xeb, 0x76, 0xb8, 0xbd, 0x19, 0x15, 0x67, 0x3d, 0xb9, 0x2e, 0xab, 0xbe, 
    0xd5, 0xb8, 0xd1, 0xbc, 0x0f, 0xf1, 0x81, 0x3e, 0xf7, 0x34, 0x34, 0x3c, 
    0x59, 0x1c, 0xd5, 0x3d, 0xd0, 0x8b, 0x9e, 0xbc, 0x1e, 0x94, 0x6c, 0x3d, 
    0x31, 0xd0, 0x30, 0xbc, 0x96, 0xfe, 0xff, 0xff, 0x04, 0x00, 0x00, 0x00, 
    0x80, 0x00, 0x00, 0x00, 0x4c, 0x8c, 0xdc, 0xbd, 0x2c, 0xa7, 0x8b, 0x3e, 
    0x53, 0x5b, 0x47, 0x3d, 0x86, 0x9e, 0x0a, 0x3e, 0xeb, 0x1a, 0x08, 0xbc, 
    0xb4, 0x12, 0x83, 0x3e, 0x9d, 0x44, 0xce, 0x3d, 0xcb, 0x29, 0xe8, 0x3d, 
    0x96, 0xe3, 0xf9, 0x3d, 0xac, 0x33, 0x8a, 0x3e, 0xa0, 0xb4, 0xbd, 0xbd, 
    0xcb, 0xbc, 0x1e, 0x3e, 0x9d, 0xca, 0x8a, 0xbd, 0x10, 0x14, 0x54, 0x3e, 
    0xc8, 0xb2, 0x02, 0xbe, 0x9a, 0x38, 0x9c, 0x3e, 0x94, 0x4a, 0x90, 0x3e, 
    0x4a, 0x1d, 0x05, 0x3e, 0x57, 0xae, 0xc0, 0xbb, 0x06, 0x97, 0xb2, 0xbc, 
    0xad, 0x71, 0x9c, 0x3d, 0xae, 0x79, 0x83, 0xbc, 0x73, 0xfb, 0x1f, 0x3e, 
    0xa7, 0xfe, 0x44, 0x3d, 0x24, 0x3e, 0xd0, 0xbd, 0x34, 0x27, 0xc9, 0xbc, 
    0xe0, 0xf8, 0x70, 0x3e, 0x48, 0x5d, 0xb6, 0xbb, 0x32, 0x52, 0x07, 0xbe, 
    0x32, 0xfb, 0xa7, 0xbc, 0xf8, 0x4d, 0x81, 0x3e, 0xa8, 0xf9, 0x82, 0xbb, 
    0x22, 0xff, 0xff, 0xff, 0x04, 0x00, 0x00, 0x00, 0x40, 0x00, 0x00, 0x00, 
    0xcd, 0x24, 0x5c, 0xbc, 0x14, 0xe2, 0x86, 0x3e, 0x41, 0x13, 0xce, 0xbd, 
    0xcc, 0x94, 0xaf, 0xbc, 0xb5, 0x5d, 0x92, 0x3d, 0x60, 0xd4, 0x12, 0x3d, 
    0xc7, 0xc9, 0x23, 0xbd, 0xb3, 0x3d, 0x78, 0x3d, 0xb2, 0x5f, 0x44, 0x3e, 
    0xbf, 0x14, 0x8c, 0x3d, 0xed, 0xc7, 0x95, 0x3d, 0xe8, 0xa8, 0x85, 0x3e, 
    0x90, 0x20, 0x8a, 0x3d, 0xed, 0x93, 0x58, 0x3e, 0x25, 0x72, 0x48, 0xbe, 
    0xf9, 0xcf, 0x75, 0x3d, 0xd0, 0xf4, 0xff, 0xff, 0xd4, 0xf4, 0xff, 0xff, 
    0x0f, 0x00, 0x00, 0x00, 0x4d, 0x4c, 0x49, 0x52, 0x20, 0x43, 0x6f, 0x6e, 
    0x76, 0x65, 0x72, 0x74, 0x65, 0x64, 0x2e, 0x00, 0x01, 0x00, 0x00, 0x00, 
    0x14, 0x00, 0x00, 0x00, 0x00, 0x00, 0x0e, 0x00, 0x18, 0x00, 0x14, 0x00, 
    0x10, 0x00, 0x0c, 0x00, 0x08, 0x00, 0x04, 0x00, 0x0e, 0x00, 0x00, 0x00, 
    0x14, 0x00, 0x00, 0x00, 0x1c, 0x00, 0x00, 0x00, 0x2c, 0x02, 0x00, 0x00, 
    0x30, 0x02, 0x00, 0x00, 0x34, 0x02, 0x00, 0x00, 0x04, 0x00, 0x00, 0x00, 
    0x6d, 0x61, 0x69, 0x6e, 0x00, 0x00, 0x00, 0x00, 0x07, 0x00, 0x00, 0x00, 
    0xc8, 0x01, 0x00, 0x00, 0x68, 0x01, 0x00, 0x00, 0x10, 0x01, 0x00, 0x00, 
    0xbc, 0x00, 0x00, 0x00, 0x88, 0x00, 0x00, 0x00, 0x40, 0x00, 0x00, 0x00, 
    0x04, 0x00, 0x00, 0x00, 0x12, 0xff, 0xff, 0xff, 0x1c, 0x00, 0x00, 0x00, 
    0x00, 0x00, 0x00, 0x09, 0x1c, 0x00, 0x00, 0x00, 0x20, 0x00, 0x00, 0x00, 
    0x04, 0x00, 0x00, 0x00, 0x00, 0x00, 0x06, 0x00, 0x08, 0x00, 0x04, 0x00, 
    0x06, 0x00, 0x00, 0x00, 0x00, 0x00, 0x80, 0x3f, 0x01, 0x00, 0x00, 0x00, 
    0x12, 0x00, 0x00, 0x00, 0x01, 0x00, 0x00, 0x00, 0x11, 0x00, 0x00, 0x00, 
    0xca, 0xff, 0xff, 0xff, 0x14, 0x00, 0x00, 0x00, 0x00, 0x00, 0x00, 0x08, 
    0x10, 0x00, 0x00, 0x00, 0x14, 0x00, 0x00, 0x00, 0x03, 0x00, 0x00, 0x00, 
    0x98, 0xf5, 0xff, 0xff, 0x01, 0x00, 0x00, 0x00, 0x11, 0x00, 0x00, 0x00, 
    0x03, 0x00, 0x00, 0x00, 0x10, 0x00, 0x00, 0x00, 0x07, 0x00, 0x00, 0x00, 
    0x08, 0x00, 0x00, 0x00, 0x00, 0x00, 0x0e, 0x00, 0x18, 0x00, 0x14, 0x00, 
    0x10, 0x00, 0x0c, 0x00, 0x0b, 0x00, 0x04, 0x00, 0x0e, 0x00, 0x00, 0x00, 
    0x14, 0x00, 0x00, 0x00, 0x00, 0x00, 0x00, 0x1b, 0x10, 0x00, 0x00, 0x00, 
    0x14, 0x00, 0x00, 0x00, 0x02, 0x00, 0x00, 0x00, 0xdc, 0xf5, 0xff, 0xff, 
    0x01, 0x00, 0x00, 0x00, 0x10, 0x00, 0x00, 0x00, 0x02, 0x00, 0x00, 0x00, 
    0x0f, 0x00, 0x00, 0x00, 0x09, 0x00, 0x00, 0x00, 0x0e, 0xff, 0xff, 0xff, 
    0x10, 0x00, 0x00, 0x00, 0x00, 0x00, 0x00, 0x01, 0x1c, 0x00, 0x00, 0x00, 
    0x20, 0x00, 0x00, 0x00, 0x5c, 0xff, 0xff, 0xff, 0x00, 0x00, 0x00, 0x01, 
    0x01, 0x00, 0x00, 0x00, 0x01, 0x00, 0x00, 0x00, 0x00, 0x00, 0x00, 0x01, 
    0x01, 0x00, 0x00, 0x00, 0x0f, 0x00, 0x00, 0x00, 0x03, 0x00, 0x00, 0x00, 
    0x0e, 0x00, 0x00, 0x00, 0x04, 0x00, 0x00, 0x00, 0x01, 0x00, 0x00, 0x00, 
    0x00, 0x00, 0x0e, 0x00, 0x1a, 0x00, 0x14, 0x00, 0x10, 0x00, 0x0c, 0x00, 
    0x0b, 0x00, 0x04, 0x00, 0x0e, 0x00, 0x00, 0x00, 0x24, 0x00, 0x00, 0x00, 
    0x00, 0x00, 0x00, 0x02, 0x30, 0x00, 0x00, 0x00, 0x34, 0x00, 0x00, 0x00, 
    0x01, 0x00, 0x00, 0x00, 0x00, 0x00, 0x0e, 0x00, 0x14, 0x00, 0x00, 0x00, 
    0x10, 0x00, 0x0c, 0x00, 0x08, 0x00, 0x07, 0x00, 0x0e, 0x00, 0x00, 0x00, 
    0x00, 0x00, 0x00, 0x01, 0x01, 0x00, 0x00, 0x00, 0x01, 0x00, 0x00, 0x00, 
    0x01, 0x00, 0x00, 0x00, 0x01, 0x00, 0x00, 0x00, 0x0e, 0x00, 0x00, 0x00, 
    0x03, 0x00, 0x00, 0x00, 0x0d, 0x00, 0x00, 0x00, 0x05, 0x00, 0x00, 0x00, 
    0x02, 0x00, 0x00, 0x00, 0xb2, 0xff, 0xff, 0xff, 0x1c, 0x00, 0x00, 0x00, 
    0x00, 0x00, 0x00, 0x01, 0x28, 0x00, 0x00, 0x00, 0x2c, 0x00, 0x00, 0x00, 
    0x0c, 0x00, 0x14, 0x00, 0x13, 0x00, 0x0c, 0x00, 0x08, 0x00, 0x07, 0x00, 
    0x0c, 0x00, 0x00, 0x00, 0x00, 0x00, 0x00, 0x01, 0x01, 0x00, 0x00, 0x00, 
    0x01, 0x00, 0x00, 0x00, 0x00, 0x00, 0x00, 0x01, 0x01, 0x00, 0x00, 0x00, 
    0x0d, 0x00, 0x00, 0x00, 0x03, 0x00, 0x00, 0x00, 0x0c, 0x00, 0x00, 0x00, 
    0x06, 0x00, 0x00, 0x00, 0x03, 0x00, 0x00, 0x00, 0x00, 0x00, 0x0e, 0x00, 
    0x14, 0x00, 0x00, 0x00, 0x10, 0x00, 0x0c, 0x00, 0x0b, 0x00, 0x04, 0x00, 
    0x0e, 0x00, 0x00, 0x00, 0x1c, 0x00, 0x00, 0x00, 0x00, 0x00, 0x00, 0x01, 
    0x24, 0x00, 0x00, 0x00, 0x28, 0x00, 0x00, 0x00, 0x0c, 0x00, 0x10, 0x00, 
    0x00, 0x00, 0x0c, 0x00, 0x08, 0x00, 0x07, 0x00, 0x0c, 0x00, 0x00, 0x00, 
    0x00, 0x00, 0x00, 0x01, 0x02, 0x00, 0x00, 0x00, 0x02, 0x00, 0x00, 0x00, 
    0x01, 0x00, 0x00, 0x00, 0x0c, 0x00, 0x00, 0x00, 0x03, 0x00, 0x00, 0x00, 
    0x00, 0x00, 0x00, 0x00, 0x0a, 0x00, 0x00, 0x00, 0x0b, 0x00, 0x00, 0x00, 
    0x01, 0x00, 0x00, 0x00, 0x12, 0x00, 0x00, 0x00, 0x01, 0x00, 0x00, 0x00, 
    0x00, 0x00, 0x00, 0x00, 0x13, 0x00, 0x00, 0x00, 0x80, 0x08, 0x00, 0x00, 
    0x2c, 0x08, 0x00, 0x00, 0xd8, 0x07, 0x00, 0x00, 0x9c, 0x07, 0x00, 0x00, 
    0x54, 0x07, 0x00, 0x00, 0x0c, 0x07, 0x00, 0x00, 0xc4, 0x06, 0x00, 0x00, 
    0x84, 0x06, 0x00, 0x00, 0x48, 0x06, 0x00, 0x00, 0xd0, 0x05, 0x00, 0x00, 
    0x54, 0x05, 0x00, 0x00, 0xac, 0x04, 0x00, 0x00, 0xe0, 0x03, 0x00, 0x00, 
    0x14, 0x03, 0x00, 0x00, 0x30, 0x02, 0x00, 0x00, 0x64, 0x01, 0x00, 0x00, 
    0xec, 0x00, 0x00, 0x00, 0x60, 0x00, 0x00, 0x00, 0x04, 0x00, 0x00, 0x00, 
    0xe2, 0xf7, 0xff, 0xff, 0x00, 0x00, 0x00, 0x01, 0x14, 0x00, 0x00, 0x00, 
    0x1c, 0x00, 0x00, 0x00, 0x1c, 0x00, 0x00, 0x00, 0x13, 0x00, 0x00, 0x00, 
    0x34, 0x00, 0x00, 0x00, 0x02, 0x00, 0x00, 0x00, 0xff, 0xff, 0xff, 0xff, 
    0x0a, 0x00, 0x00, 0x00, 0xc4, 0xf7, 0xff, 0xff, 0x1b, 0x00, 0x00, 0x00, 
    0x53, 0x74, 0x61, 0x74, 0x65, 0x66, 0x75, 0x6c, 0x50, 0x61, 0x72, 0x74, 
    0x69, 0x74, 0x69, 0x6f, 0x6e, 0x65, 0x64, 0x43, 0x61, 0x6c, 0x6c, 0x5f, 
    0x31, 0x3a, 0x30, 0x00, 0x02, 0x00, 0x00, 0x00, 0x01, 0x00, 0x00, 0x00, 
    0x0a, 0x00, 0x00, 0x00, 0x3a, 0xf8, 0xff, 0xff, 0x00, 0x00, 0x00, 0x01, 
    0x14, 0x00, 0x00, 0x00, 0x1c, 0x00, 0x00, 0x00, 0x1c, 0x00, 0x00, 0x00, 
    0x12, 0x00, 0x00, 0x00, 0x64, 0x00, 0x00, 0x00, 0x02, 0x00, 0x00, 0x00, 
    0xff, 0xff, 0xff, 0xff, 0x0a, 0x00, 0x00, 0x00, 0x1c, 0xf8, 0xff, 0xff, 
    0x4a, 0x00, 0x00, 0x00, 0x4d, 0x69, 0x6e, 0x69, 0x5f, 0x45, 0x66, 0x66, 
    0x69, 0x63, 0x69, 0x65, 0x6e, 0x74, 0x4e, 0x65, 0x74, 0x5f, 0x31, 0x2f, 
    0x64, 0x65, 0x6e, 0x73, 0x65, 0x5f, 0x35, 0x5f, 0x31, 0x2f, 0x4d, 0x61, 
    0x74, 0x4d, 0x75, 0x6c, 0x3b, 0x4d, 0x69, 0x6e, 0x69, 0x5f, 0x45, 0x66, 
    0x66, 0x69, 0x63, 0x69, 0x65, 0x6e, 0x74, 0x4e, 0x65, 0x74, 0x5f, 0x31, 
    0x2f, 0x64, 0x65, 0x6e, 0x73, 0x65, 0x5f, 0x35, 0x5f, 0x31, 0x2f, 0x42, 
    0x69, 0x61, 0x73, 0x41, 0x64, 0x64, 0x00, 0x00, 0x02, 0x00, 0x00, 0x00, 
    0x01, 0x00, 0x00, 0x00, 0x0a, 0x00, 0x00, 0x00, 0xc2, 0xf8, 0xff, 0xff, 
    0x00, 0x00, 0x00, 0x01, 0x14, 0x00, 0x00, 0x00, 0x1c, 0x00, 0x00, 0x00, 
    0x1c, 0x00, 0x00, 0x00, 0x11, 0x00, 0x00, 0x00, 0x50, 0x00, 0x00, 0x00, 
    0x02, 0x00, 0x00, 0x00, 0xff, 0xff, 0xff, 0xff, 0x10, 0x00, 0x00, 0x00, 
    0xa4, 0xf8, 0xff, 0xff, 0x35, 0x00, 0x00, 0x00, 0x4d, 0x69, 0x6e, 0x69, 
    0x5f, 0x45, 0x66, 0x66, 0x69, 0x63, 0x69, 0x65, 0x6e, 0x74, 0x4e, 0x65, 
    0x74, 0x5f, 0x31, 0x2f, 0x67, 0x6c, 0x6f, 0x62, 0x61, 0x6c, 0x5f, 0x61, 
    0x76, 0x65, 0x72, 0x61, 0x67, 0x65, 0x5f, 0x70, 0x6f, 0x6f, 0x6c, 0x69, 
    0x6e, 0x67, 0x32, 0x64, 0x5f, 0x33, 0x5f, 0x31, 0x2f, 0x4d, 0x65, 0x61, 
    0x6e, 0x00, 0x00, 0x00, 0x02, 0x00, 0x00, 0x00, 0x01, 0x00, 0x00, 0x00, 
    0x10, 0x00, 0x00, 0x00, 0x36, 0xf9, 0xff, 0xff, 0x00, 0x00, 0x00, 0x01, 
    0x14, 0x00, 0x00, 0x00, 0x24, 0x00, 0x00, 0x00, 0x24, 0x00, 0x00, 0x00, 
    0x10, 0x00, 0x00, 0x00, 0x9c, 0x00, 0x00, 0x00, 0x04, 0x00, 0x00, 0x00, 
    0xff, 0xff, 0xff, 0xff, 0x0e, 0x00, 0x00, 0x00, 0x0e, 0x00, 0x00, 0x00, 
    0x10, 0x00, 0x00, 0x00, 0x20, 0xf9, 0xff, 0xff, 0x79, 0x00, 0x00, 0x00, 
    0x4d, 0x69, 0x6e, 0x69, 0x5f, 0x45, 0x66, 0x66, 0x69, 0x63, 0x69, 0x65, 
    0x6e, 0x74, 0x4e, 0x65, 0x74, 0x5f, 0x31, 0x2f, 0x63, 0x6f, 0x6e, 0x76, 
    0x32, 0x64, 0x5f, 0x31, 0x36, 0x5f, 0x31, 0x2f, 0x52, 0x65, 0x6c, 0x75, 
    0x3b, 0x4d, 0x69, 0x6e, 0x69, 0x5f, 0x45, 0x66, 0x66, 0x69, 0x63, 0x69, 
    0x65, 0x6e, 0x74, 0x4e, 0x65, 0x74, 0x5f, 0x31, 0x2f, 0x63, 0x6f, 0x6e, 
    0x76, 0x32, 0x64, 0x5f, 0x31, 0x36, 0x5f, 0x31, 0x2f, 0x42, 0x69, 0x61, 
    0x73, 0x41, 0x64, 0x64, 0x3b, 0x4d, 0x69, 0x6e, 0x69, 0x5f, 0x45, 0x66, 
    0x66, 0x69, 0x63, 0x69, 0x65, 0x6e, 0x74, 0x4e, 0x65, 0x74, 0x5f, 0x31, 
    0x2f, 0x63, 0x6f, 0x6e, 0x76, 0x32, 0x64, 0x5f, 0x31, 0x36, 0x5f, 0x31, 
    0x2f, 0x63, 0x6f, 0x6e, 0x76, 0x6f, 0x6c, 0x75, 0x74, 0x69, 0x6f, 0x6e, 
    0x3b, 0x00, 0x00, 0x00, 0x04, 0x00, 0x00, 0x00, 0x01, 0x00, 0x00, 0x00, 
    0x0e, 0x00, 0x00, 0x00, 0x0e, 0x00, 0x00, 0x00, 0x10, 0x00, 0x00, 0x00, 
    0xfe, 0xf9, 0xff, 0xff, 0x00, 0x00, 0x00, 0x01, 0x14, 0x00, 0x00, 0x00, 
    0x24, 0x00, 0x00, 0x00, 0x24, 0x00, 0x00, 0x00, 0x0f, 0x00, 0x00, 0x00, 
    0xb4, 0x00, 0x00, 0x00, 0x04, 0x00, 0x00, 0x00, 0xff, 0xff, 0xff, 0xff, 
    0x0e, 0x00, 0x00, 0x00, 0x0e, 0x00, 0x00, 0x00, 0x20, 0x00, 0x00, 0x00, 
    0xe8, 0xf9, 0xff, 0xff, 0x92, 0x00, 0x00, 0x00, 0x4d, 0x69, 0x6e, 0x69, 
    0x5f, 0x45, 0x66, 0x66, 0x69, 0x63, 0x69, 0x65, 0x6e, 0x74, 0x4e, 0x65, 
    0x74, 0x5f, 0x31, 0x2f, 0x64, 0x65, 0x70, 0x74, 0x68, 0x77, 0x69, 0x73, 
    0x65, 0x5f, 0x63, 0x6f, 0x6e, 0x76, 0x32, 0x64, 0x5f, 0x32, 0x5f, 0x31, 
    0x2f, 0x52, 0x65, 0x6c, 0x75, 0x3b, 0x4d, 0x69, 0x6e, 0x69, 0x5f, 0x45, 
    0x66, 0x66, 0x69, 0x63, 0x69, 0x65, 0x6e, 0x74, 0x4e, 0x65, 0x74, 0x5f, 
    0x31, 0x2f, 0x64, 0x65, 0x70, 0x74, 0x68, 0x77, 0x69, 0x73, 0x65, 0x5f, 
    0x63, 0x6f, 0x6e, 0x76, 0x32, 0x64, 0x5f, 0x32, 0x5f, 0x31, 0x2f, 0x42, 
    0x69, 0x61, 0x73, 0x41, 0x64, 0x64, 0x3b, 0x4d, 0x69, 0x6e, 0x69, 0x5f, 
    0x45, 0x66, 0x66, 0x69, 0x63, 0x69, 0x65, 0x6e, 0x74, 0x4e, 0x65, 0x74, 
    0x5f, 0x31, 0x2f, 0x64, 0x65, 0x70, 0x74, 0x68, 0x77, 0x69, 0x73, 0x65, 
    0x5f, 0x63, 0x6f, 0x6e, 0x76, 0x32, 0x64, 0x5f, 0x32, 0x5f, 0x31, 0x2f, 
    0x64, 0x65, 0x70, 0x74, 0x68, 0x77, 0x69, 0x73, 0x65, 0x3b, 0x00, 0x00, 
    0x04, 0x00, 0x00, 0x00, 0x01, 0x00, 0x00, 0x00, 0x0e, 0x00, 0x00, 0x00, 
    0x0e, 0x00, 0x00, 0x00, 0x20, 0x00, 0x00, 0x00, 0xde, 0xfa, 0xff, 0xff, 
    0x00, 0x00, 0x00, 0x01, 0x14, 0x00, 0x00, 0x00, 0x24, 0x00, 0x00, 0x00, 
    0x24, 0x00, 0x00, 0x00, 0x0e, 0x00, 0x00, 0x00, 0x9c, 0x00, 0x00, 0x00, 
    0x04, 0x00, 0x00, 0x00, 0xff, 0xff, 0xff, 0xff, 0x0e, 0x00, 0x00, 0x00, 
    0x0e, 0x00, 0x00, 0x00, 0x20, 0x00, 0x00, 0x00, 0xc8, 0xfa, 0xff, 0xff, 
    0x79, 0x00, 0x00, 0x00, 0x4d, 0x69, 0x6e, 0x69, 0x5f, 0x45, 0x66, 0x66, 
    0x69, 0x63, 0x69, 0x65, 0x6e, 0x74, 0x4e, 0x65, 0x74, 0x5f, 0x31, 0x2f, 
    0x63, 0x6f, 0x6e, 0x76, 0x32, 0x64, 0x5f, 0x31, 0x35, 0x5f, 0x31, 0x2f, 
    0x52, 0x65, 0x6c, 0x75, 0x3b, 0x4d, 0x69, 0x6e, 0x69, 0x5f, 0x45, 0x66, 
    0x66, 0x69, 0x63, 0x69, 0x65, 0x6e, 0x74, 0x4e, 0x65, 0x74, 0x5f, 0x31, 
    0x2f, 0x63, 0x6f, 0x6e, 0x76, 0x32, 0x64, 0x5f, 0x31, 0x35, 0x5f, 0x31, 
    0x2f, 0x42, 0x69, 0x61, 0x73, 0x41, 0x64, 0x64, 0x3b, 0x4d, 0x69, 0x6e, 
    0x69, 0x5f, 0x45, 0x66, 0x66, 0x69, 0x63, 0x69, 0x65, 0x6e, 0x74, 0x4e, 
    0x65, 0x74, 0x5f, 0x31, 0x2f, 0x63, 0x6f, 0x6e, 0x76, 0x32, 0x64, 0x5f, 
    0x31, 0x35, 0x5f, 0x31, 0x2f, 0x63, 0x6f, 0x6e, 0x76, 0x6f, 0x6c, 0x75, 
    0x74, 0x69, 0x6f, 0x6e, 0x3b, 0x00, 0x00, 0x00, 0x04, 0x00, 0x00, 0x00, 
    0x01, 0x00, 0x00, 0x00, 0x0e, 0x00, 0x00, 0x00, 0x0e, 0x00, 0x00, 0x00, 
    0x20, 0x00, 0x00, 0x00, 0xa6, 0xfb, 0xff, 0xff, 0x00, 0x00, 0x00, 0x01, 
    0x14, 0x00, 0x00, 0x00, 0x24, 0x00, 0x00, 0x00, 0x24, 0x00, 0x00, 0x00, 
    0x0d, 0x00, 0x00, 0x00, 0x9c, 0x00, 0x00, 0x00, 0x04, 0x00, 0x00, 0x00, 
    0xff, 0xff, 0xff, 0xff, 0x0e, 0x00, 0x00, 0x00, 0x0e, 0x00, 0x00, 0x00, 
    0x10, 0x00, 0x00, 0x00, 0x90, 0xfb, 0xff, 0xff, 0x7a, 0x00, 0x00, 0x00, 
    0x4d, 0x69, 0x6e, 0x69, 0x5f, 0x45, 0x66, 0x66, 0x69, 0x63, 0x69, 0x65, 
    0x6e, 0x74, 0x4e, 0x65, 0x74, 0x5f, 0x31, 0x2f, 0x63, 0x6f, 0x6e, 0x76, 
    0x32, 0x64, 0x5f, 0x31, 0x34, 0x5f, 0x31, 0x2f, 0x52, 0x65, 0x6c, 0x75, 
    0x3b, 0x4d, 0x69, 0x6e, 0x69, 0x5f, 0x45, 0x66, 0x66, 0x69, 0x63, 0x69, 
    0x65, 0x6e, 0x74, 0x4e, 0x65, 0x74, 0x5f, 0x31, 0x2f, 0x63, 0x6f, 0x6e, 
    0x76, 0x32, 0x64, 0x5f, 0x31, 0x34, 0x5f, 0x31, 0x2f, 0x42, 0x69, 0x61, 
    0x73, 0x41, 0x64, 0x64, 0x3b, 0x4d, 0x69, 0x6e, 0x69, 0x5f, 0x45, 0x66, 
    0x66, 0x69, 0x63, 0x69, 0x65, 0x6e, 0x74, 0x4e, 0x65, 0x74, 0x5f, 0x31, 
    0x2f, 0x63, 0x6f, 0x6e, 0x76, 0x32, 0x64, 0x5f, 0x31, 0x34, 0x5f, 0x31, 
    0x2f, 0x63, 0x6f, 0x6e, 0x76, 0x6f, 0x6c, 0x75, 0x74, 0x69, 0x6f, 0x6e, 
    0x3b, 0x31, 0x00, 0x00, 0x04, 0x00, 0x00, 0x00, 0x01, 0x00, 0x00, 0x00, 
    0x0e, 0x00, 0x00, 0x00, 0x0e, 0x00, 0x00, 0x00, 0x10, 0x00, 0x00, 0x00, 
    0xbe, 0xfc, 0xff, 0xff, 0x00, 0x00, 0x00, 0x01, 0x10, 0x00, 0x00, 0x00, 
    0x10, 0x00, 0x00, 0x00, 0x0c, 0x00, 0x00, 0x00, 0x88, 0x00, 0x00, 0x00, 
    0x40, 0xfc, 0xff, 0xff, 0x79, 0x00, 0x00, 0x00, 0x4d, 0x69, 0x6e, 0x69, 
    0x5f, 0x45, 0x66, 0x66, 0x69, 0x63, 0x69, 0x65, 0x6e, 0x74, 0x4e, 0x65, 
    0x74, 0x5f, 0x31, 0x2f, 0x63, 0x6f, 0x6e, 0x76, 0x32, 0x64, 0x5f, 0x31, 
    0x34, 0x5f, 0x31, 0x2f, 0x52, 0x65, 0x6c, 0x75, 0x3b, 0x4d, 0x69, 0x6e, 
    0x69, 0x5f, 0x45, 0x66, 0x66, 0x69, 0x63, 0x69, 0x65, 0x6e, 0x74, 0x4e, 
    0x65, 0x74, 0x5f, 0x31, 0x2f, 0x63, 0x6f, 0x6e, 0x76, 0x32, 0x64, 0x5f, 
    0x31, 0x34, 0x5f, 0x31, 0x2f, 0x42, 0x69, 0x61, 0x73, 0x41, 0x64, 0x64, 
    0x3b, 0x4d, 0x69, 0x6e, 0x69, 0x5f, 0x45, 0x66, 0x66, 0x69, 0x63, 0x69, 
    0x65, 0x6e, 0x74, 0x4e, 0x65, 0x74, 0x5f, 0x31, 0x2f, 0x63, 0x6f, 0x6e, 
    0x76, 0x32, 0x64, 0x5f, 0x31, 0x34, 0x5f, 0x31, 0x2f, 0x63, 0x6f, 0x6e, 
    0x76, 0x6f, 0x6c, 0x75, 0x74, 0x69, 0x6f, 0x6e, 0x3b, 0x00, 0x00, 0x00, 
    0x01, 0x00, 0x00, 0x00, 0x10, 0x00, 0x00, 0x00, 0x62, 0xfd, 0xff, 0xff, 
    0x00, 0x00, 0x00, 0x01, 0x10, 0x00, 0x00, 0x00, 0x10, 0x00, 0x00, 0x00, 
    0x0b, 0x00, 0x00, 0x00, 0x38, 0x00, 0x00, 0x00, 0xe4, 0xfc, 0xff, 0xff, 
    0x2b, 0x00, 0x00, 0x00, 0x4d, 0x69, 0x6e, 0x69, 0x5f, 0x45, 0x66, 0x66, 
    0x69, 0x63, 0x69, 0x65, 0x6e, 0x74, 0x4e, 0x65, 0x74, 0x5f, 0x31, 0x2f, 
    0x63, 0x6f, 0x6e, 0x76, 0x32, 0x64, 0x5f, 0x31, 0x34, 0x5f, 0x31, 0x2f, 
    0x63, 0x6f, 0x6e, 0x76, 0x6f, 0x6c, 0x75, 0x74, 0x69, 0x6f, 0x6e, 0x00, 
    0x04, 0x00, 0x00, 0x00, 0x10, 0x00, 0x00, 0x00, 0x03, 0x00, 0x00, 0x00, 
    0x03, 0x00, 0x00, 0x00, 0x01, 0x00, 0x00, 0x00, 0x00, 0x00, 0x16, 0x00, 
    0x1c, 0x00, 0x18, 0x00, 0x17, 0x00, 0x10, 0x00, 0x0c, 0x00, 0x08, 0x00, 
    0x00, 0x00, 0x00, 0x00, 0x00, 0x00, 0x07, 0x00, 0x16, 0x00, 0x00, 0x00, 
    0x00, 0x00, 0x00, 0x01, 0x14, 0x00, 0x00, 0x00, 0x14, 0x00, 0x00, 0x00, 
    0x0a, 0x00, 0x00, 0x00, 0x00, 0x00, 0x00, 0x02, 0x54, 0x00, 0x00, 0x00, 
    0x60, 0xfd, 0xff, 0xff, 0x47, 0x00, 0x00, 0x00, 0x4d, 0x69, 0x6e, 0x69, 
    0x5f, 0x45, 0x66, 0x66, 0x69, 0x63, 0x69, 0x65, 0x6e, 0x74, 0x4e, 0x65, 
    0x74, 0x5f, 0x31, 0x2f, 0x67, 0x6c, 0x6f, 0x62, 0x61, 0x6c, 0x5f, 0x61, 
    0x76, 0x65, 0x72, 0x61, 0x67, 0x65, 0x5f, 0x70, 0x6f, 0x6f, 0x6c, 0x69, 
    0x6e, 0x67, 0x32, 0x64, 0x5f, 0x33, 0x5f, 0x31, 0x2f, 0x4d, 0x65, 0x61, 
    0x6e, 0x2f, 0x72, 0x65, 0x64, 0x75, 0x63, 0x74, 0x69, 0x6f, 0x6e, 0x5f, 
    0x69, 0x6e, 0x64, 0x69, 0x63, 0x65, 0x73, 0x00, 0x01, 0x00, 0x00, 0x00, 
    0x02, 0x00, 0x00, 0x00, 0x4e, 0xfe, 0xff, 0xff, 0x00, 0x00, 0x00, 0x01, 
    0x10, 0x00, 0x00, 0x00, 0x10, 0x00, 0x00, 0x00, 0x09, 0x00, 0x00, 0x00, 
    0x1c, 0x00, 0x00, 0x00, 0xd0, 0xfd, 0xff, 0xff, 0x0f, 0x00, 0x00, 0x00, 
    0x61, 0x72, 0x69, 0x74, 0x68, 0x2e, 0x63, 0x6f, 0x6e, 0x73, 0x74, 0x61, 
    0x6e, 0x74, 0x37, 0x00, 0x01, 0x00, 0x00, 0x00, 0x0a, 0x00, 0x00, 0x00, 
    0x86, 0xfe, 0xff, 0xff, 0x00, 0x00, 0x00, 0x01, 0x10, 0x00, 0x00, 0x00, 
    0x10, 0x00, 0x00, 0x00, 0x08, 0x00, 0x00, 0x00, 0x1c, 0x00, 0x00, 0x00, 
    0x08, 0xfe, 0xff, 0xff, 0x0f, 0x00, 0x00, 0x00, 0x61, 0x72, 0x69, 0x74, 
    0x68, 0x2e, 0x63, 0x6f, 0x6e, 0x73, 0x74, 0x61, 0x6e, 0x74, 0x36, 0x00, 
    0x02, 0x00, 0x00, 0x00, 0x0a, 0x00, 0x00, 0x00, 0x10, 0x00, 0x00, 0x00, 
    0xc2, 0xfe, 0xff, 0xff, 0x00, 0x00, 0x00, 0x01, 0x10, 0x00, 0x00, 0x00, 
    0x10, 0x00, 0x00, 0x00, 0x07, 0x00, 0x00, 0x00, 0x1c, 0x00, 0x00, 0x00, 
    0x44, 0xfe, 0xff, 0xff, 0x0f, 0x00, 0x00, 0x00, 0x61, 0x72, 0x69, 0x74, 
    0x68, 0x2e, 0x63, 0x6f, 0x6e, 0x73, 0x74, 0x61, 0x6e, 0x74, 0x35, 0x00, 
    0x04, 0x00, 0x00, 0x00, 0x20, 0x00, 0x00, 0x00, 0x01, 0x00, 0x00, 0x00, 
    0x01, 0x00, 0x00, 0x00, 0x10, 0x00, 0x00, 0x00, 0x06, 0xff, 0xff, 0xff, 
    0x00, 0x00, 0x00, 0x01, 0x10, 0x00, 0x00, 0x00, 0x10, 0x00, 0x00, 0x00, 
    0x06, 0x00, 0x00, 0x00, 0x1c, 0x00, 0x00, 0x00, 0x88, 0xfe, 0xff, 0xff, 
    0x0f, 0x00, 0x00, 0x00, 0x61, 0x72, 0x69, 0x74, 0x68, 0x2e, 0x63, 0x6f, 
    0x6e, 0x73, 0x74, 0x61, 0x6e, 0x74, 0x34, 0x00, 0x04, 0x00, 0x00, 0x00, 
    0x01, 0x00, 0x00, 0x00, 0x03, 0x00, 0x00, 0x00, 0x03, 0x00, 0x00, 0x00, 
    0x20, 0x00, 0x00, 0x00, 0x4a, 0xff, 0xff, 0xff, 0x00, 0x00, 0x00, 0x01, 
    0x10, 0x00, 0x00, 0x00, 0x10, 0x00, 0x00, 0x00, 0x05, 0x00, 0x00, 0x00, 
    0x1c, 0x00, 0x00, 0x00, 0xcc, 0xfe, 0xff, 0xff, 0x0f, 0x00, 0x00, 0x00, 
    0x61, 0x72, 0x69, 0x74, 0x68, 0x2e, 0x63, 0x6f, 0x6e, 0x73, 0x74, 0x61, 
    0x6e, 0x74, 0x33, 0x00, 0x04, 0x00, 0x00, 0x00, 0x10, 0x00, 0x00, 0x00, 
    0x01, 0x00, 0x00, 0x00, 0x01, 0x00, 0x00, 0x00, 0x20, 0x00, 0x00, 0x00, 
    0x8e, 0xff, 0xff, 0xff, 0x00, 0x00, 0x00, 0x01, 0x10, 0x00, 0x00, 0x00, 
    0x10, 0x00, 0x00, 0x00, 0x04, 0x00, 0x00, 0x00, 0x1c, 0x00, 0x00, 0x00, 
    0x10, 0xff, 0xff, 0xff, 0x0f, 0x00, 0x00, 0x00, 0x61, 0x72, 0x69, 0x74, 
    0x68, 0x2e, 0x63, 0x6f, 0x6e, 0x73, 0x74, 0x61, 0x6e, 0x74, 0x32, 0x00, 
    0x01, 0x00, 0x00, 0x00, 0x20, 0x00, 0x00, 0x00, 0xc6, 0xff, 0xff, 0xff, 
    0x00, 0x00, 0x00, 0x01, 0x10, 0x00, 0x00, 0x00, 0x10, 0x00, 0x00, 0x00, 
    0x03, 0x00, 0x00, 0x00, 0x1c, 0x00, 0x00, 0x00, 0x48, 0xff, 0xff, 0xff, 
    0x0f, 0x00, 0x00, 0x00, 0x61, 0x72, 0x69, 0x74, 0x68, 0x2e, 0x63, 0x6f, 
    0x6e, 0x73, 0x74, 0x61, 0x6e, 0x74, 0x31, 0x00, 0x01, 0x00, 0x00, 0x00, 
    0x20, 0x00, 0x00, 0x00, 0x00, 0x00, 0x16, 0x00, 0x18, 0x00, 0x14, 0x00, 
    0x00, 0x00, 0x10, 0x00, 0x0c, 0x00, 0x08, 0x00, 0x00, 0x00, 0x00, 0x00, 
    0x00, 0x00, 0x07, 0x00, 0x16, 0x00, 0x00, 0x00, 0x00, 0x00, 0x00, 0x01, 
    0x10, 0x00, 0x00, 0x00, 0x10, 0x00, 0x00, 0x00, 0x02, 0x00, 0x00, 0x00, 
    0x1c, 0x00, 0x00, 0x00, 0x98, 0xff, 0xff, 0xff, 0x0e, 0x00, 0x00, 0x00, 
    0x61, 0x72, 0x69, 0x74, 0x68, 0x2e, 0x63, 0x6f, 0x6e, 0x73, 0x74, 0x61, 
    0x6e, 0x74, 0x00, 0x00, 0x01, 0x00, 0x00, 0x00, 0x10, 0x00, 0x00, 0x00, 
    0x00, 0x00, 0x16, 0x00, 0x1c, 0x00, 0x18, 0x00, 0x00, 0x00, 0x14, 0x00, 
    0x10, 0x00, 0x0c, 0x00, 0x00, 0x00, 0x00, 0x00, 0x08, 0x00, 0x07, 0x00, 
    0x16, 0x00, 0x00, 0x00, 0x00, 0x00, 0x00, 0x01, 0x14, 0x00, 0x00, 0x00, 
    0x28, 0x00, 0x00, 0x00, 0x28, 0x00, 0x00, 0x00, 0x01, 0x00, 0x00, 0x00, 
    0x48, 0x00, 0x00, 0x00, 0x04, 0x00, 0x00, 0x00, 0xff, 0xff, 0xff, 0xff, 
    0x1c, 0x00, 0x00, 0x00, 0x1c, 0x00, 0x00, 0x00, 0x01, 0x00, 0x00, 0x00, 
    0x04, 0x00, 0x04, 0x00, 0x04, 0x00, 0x00, 0x00, 0x21, 0x00, 0x00, 0x00, 
    0x73, 0x65, 0x72, 0x76, 0x69, 0x6e, 0x67, 0x5f, 0x64, 0x65, 0x66, 0x61, 
    0x75, 0x6c, 0x74, 0x5f, 0x6b, 0x65, 0x72, 0x61, 0x73, 0x5f, 0x74, 0x65, 
    0x6e, 0x73, 0x6f, 0x72, 0x5f, 0x33, 0x38, 0x3a, 0x30, 0x00, 0x00, 0x00, 
    0x04, 0x00, 0x00, 0x00, 0x01, 0x00, 0x00, 0x00, 0x1c, 0x00, 0x00, 0x00, 
    0x1c, 0x00, 0x00, 0x00, 0x01, 0x00, 0x00, 0x00, 0x05, 0x00, 0x00, 0x00, 
    0x50, 0x00, 0x00, 0x00, 0x34, 0x00, 0x00, 0x00, 0x24, 0x00, 0x00, 0x00, 
    0x14, 0x00, 0x00, 0x00, 0x04, 0x00, 0x00, 0x00, 0xd0, 0xff, 0xff, 0xff, 
    0x19, 0x00, 0x00, 0x00, 0x00, 0x00, 0x00, 0x19, 0xdc, 0xff, 0xff, 0xff, 
    0x09, 0x00, 0x00, 0x00, 0x00, 0x00, 0x00, 0x09, 0xe8, 0xff, 0xff, 0xff, 
    0x28, 0x00, 0x00, 0x00, 0x00, 0x00, 0x00, 0x28, 0xf4, 0xff, 0xff, 0xff, 
    0x04, 0x00, 0x00, 0x00, 0x00, 0x00, 0x00, 0x04, 0x0c, 0x00, 0x0c, 0x00, 
    0x0b, 0x00, 0x00, 0x00, 0x00, 0x00, 0x04, 0x00, 0x0c, 0x00, 0x00, 0x00, 
    0x03, 0x00, 0x00, 0x00, 0x00, 0x00, 0x00, 0x03, 
};
const unsigned int efficientnet_data_len = 10592;
