#pragma once
alignas(8) const unsigned char mobilenet_data[] = {
    0x1c, 0x00, 0x00, 0x00, 0x54, 0x46, 0x4c, 0x33, 0x14, 0x00, 0x20, 0x00, 
    0x1c, 0x00, 0x18, 0x00, 0x14, 0x00, 0x10, 0x00, 0x0c, 0x00, 0x00, 0x00, 
    0x08, 0x00, 0x04, 0x00, 0x14, 0x00, 0x00, 0x00, 0x1c, 0x00, 0x00, 0x00, 
    0x98, 0x00, 0x00, 0x00, 0xf0, 0x00, 0x00, 0x00, 0xc0, 0x09, 0x00, 0x00, 
    0xd0, 0x09, 0x00, 0x00, 0x58, 0x13, 0x00, 0x00, 0x03, 0x00, 0x00, 0x00, 
    0x01, 0x00, 0x00, 0x00, 0x10, 0x00, 0x00, 0x00, 0x00, 0x00, 0x0a, 0x00, 
    0x10, 0x00, 0x0c, 0x00, 0x08, 0x00, 0x04, 0x00, 0x0a, 0x00, 0x00, 0x00, 
    0x0c, 0x00, 0x00, 0x00, 0x1c, 0x00, 0x00, 0x00, 0x3c, 0x00, 0x00, 0x00, 
    0x0f, 0x00, 0x00, 0x00, 0x73, 0x65, 0x72, 0x76, 0x69, 0x6e, 0x67, 0x5f, 
    0x64, 0x65, 0x66, 0x61, 0x75, 0x6c, 0x74, 0x00, 0x01, 0x00, 0x00, 0x00, 
    0x04, 0x00, 0x00, 0x00, 0x90, 0xff, 0xff, 0xff, 0x0f, 0x00, 0x00, 0x00, 
    0x04, 0x00, 0x00, 0x00, 0x08, 0x00, 0x00, 0x00, 0x6f, 0x75, 0x74, 0x70, 
    0x75, 0x74, 0x5f, 0x30, 0x00, 0x00, 0x00, 0x00, 0x01, 0x00, 0x00, 0x00, 
    0x04, 0x00, 0x00, 0x00, 0x2e, 0xf6, 0xff, 0xff, 0x04, 0x00, 0x00, 0x00, 
    0x0f, 0x00, 0x00, 0x00, 0x6b, 0x65, 0x72, 0x61, 0x73, 0x5f, 0x74, 0x65, 
    0x6e, 0x73, 0x6f, 0x72, 0x5f, 0x31, 0x35, 0x00, 0x02, 0x00, 0x00, 0x00, 
    0x34, 0x00, 0x00, 0x00, 0x04, 0x00, 0x00, 0x00, 0xdc, 0xff, 0xff, 0xff, 
    0x12, 0x00, 0x00, 0x00, 0x04, 0x00, 0x00, 0x00, 0x13, 0x00, 0x00, 0x00, 
    0x43, 0x4f, 0x4e, 0x56, 0x45, 0x52, 0x53, 0x49, 0x4f, 0x4e, 0x5f, 0x4d, 
    0x45, 0x54, 0x41, 0x44, 0x41, 0x54, 0x41, 0x00, 0x08, 0x00, 0x0c, 0x00, 
    0x08, 0x00, 0x04, 0x00, 0x08, 0x00, 0x00, 0x00, 0x11, 0x00, 0x00, 0x00, 
    0x04, 0x00, 0x00, 0x00, 0x13, 0x00, 0x00, 0x00, 0x6d, 0x69, 0x6e, 0x5f, 
    0x72, 0x75, 0x6e, 0x74, 0x69, 0x6d, 0x65, 0x5f, 0x76, 0x65, 0x72, 0x73, 
    0x69, 0x6f, 0x6e, 0x00, 0x13, 0x00, 0x00, 0x00, 0xcc, 0x08, 0x00, 0x00, 
    0xc4, 0x08, 0x00, 0x00, 0x74, 0x08, 0x00, 0x00, 0x44, 0x08, 0x00, 0x00, 
    0x34, 0x06, 0x00, 0x00, 0x04, 0x05, 0x00, 0x00, 0x74, 0x02, 0x00, 0x00, 
    0x3c, 0x02, 0x00, 0x00, 0x24, 0x02, 0x00, 0x00, 0xf4, 0x00, 0x00, 0x00, 
    0xc4, 0x00, 0x00, 0x00, 0xbc, 0x00, 0x00, 0x00, 0xb4, 0x00, 0x00, 0x00, 
    0xac, 0x00, 0x00, 0x00, 0xa4, 0x00, 0x00, 0x00, 0x9c, 0x00, 0x00, 0x00, 
    0x94, 0x00, 0x00, 0x00, 0x74, 0x00, 0x00, 0x00, 0x04, 0x00, 0x00, 0x00, 
    0xf6, 0xf6, 0xff, 0xff, 0x04, 0x00, 0x00, 0x00, 0x60, 0x00, 0x00, 0x00, 
    0x10, 0x00, 0x00, 0x00, 0x00, 0x00, 0x00, 0x00, 0x08, 0x00, 0x0e, 0x00, 
    0x08, 0x00, 0x04, 0x00, 0x08, 0x00, 0x00, 0x00, 0x10, 0x00, 0x00, 0x00, 
    0x24, 0x00, 0x00, 0x00, 0x00, 0x00, 0x06, 0x00, 0x08, 0x00, 0x04, 0x00, 
    0x06, 0x00, 0x00, 0x00, 0x04, 0x00, 0x00, 0x00, 0x00, 0x00, 0x00, 0x00, 
    0x0c, 0x00, 0x18, 0x00, 0x14, 0x00, 0x10, 0x00, 0x0c, 0x00, 0x04, 0x00, 
    0x0c, 0x00, 0x00, 0x00, 0x2a, 0xa6, 0x11, 0x51, 0x39, 0x7f, 0x16, 0x5d, 
    0x02, 0x00, 0x00, 0x00, 0x02, 0x00, 0x00, 0x00, 0x04, 0x00, 0x00, 0x00, 
    0x06, 0x00, 0x00, 0x00, 0x32, 0x2e, 0x31, 0x39, 0x2e, 0x30, 0x00, 0x00, 
    0x62, 0xf7, 0xff, 0xff, 0x04, 0x00, 0x00, 0x00, 0x10, 0x00, 0x00, 0x00, 
    0x31, 0x2e, 0x36, 0x2e, 0x30, 0x00, 0x00, 0x00, 0x00, 0x00, 0x00, 0x00, 
    0x00, 0x00, 0x00, 0x00, 0xa8, 0xee, 0xff, 0xff, 0xac, 0xee, 0xff, 0xff, 
    0xb0, 0xee, 0xff, 0xff, 0xb4, 0xee, 0xff, 0xff, 0xb8, 0xee, 0xff, 0xff, 
    0xbc, 0xee, 0xff, 0xff, 0x96, 0xf7, 0xff, 0xff, 0x04, 0x00, 0x00, 0x00, 
    0x20, 0x00, 0x00, 0x00, 0xd2, 0xa5, 0xf6, 0xba, 0xa3, 0xf3, 0x11, 0x3d, 
    0xaf, 0xcf, 0xf8, 0xbb, 0x8a, 0x1c, 0x90, 0xba, 0x6e, 0xa1, 0x03, 0xbe, 
    0x31, 0x1b, 0xf4, 0x3e, 0x9b, 0xb2, 0x32, 0x3d, 0xde, 0x30, 0x4e, 0x3c, 
    0xc2, 0xf7, 0xff, 0xff, 0x04, 0x00, 0x00, 0x00, 0x20, 0x01, 0x00, 0x00, 
    0x08, 0x83, 0x03, 0x3f, 0x15, 0x41, 0x71, 0x3f, 0xf1, 0xc9, 0x5b, 0x3f, 
    0x28, 0x56, 0x7c, 0xbe, 0x0f, 0x77, 0x87, 0x3e, 0xa4, 0x52, 0x9e, 0x3e, 
    0xe7, 0x74, 0x88, 0xbf, 0x57, 0xd4, 0x88, 0xbf, 0xe7, 0xb3, 0x03, 0xbf, 
    0x15, 0xba, 0x23, 0x3f, 0x96, 0x9f, 0x69, 0x3f, 0xa1, 0x9e, 0xe5, 0x3e, 
    0x12, 0x0a, 0x4b, 0x3f, 0x6f, 0x4f, 0x79, 0x3f, 0x3d, 0xc9, 0x85, 0x3e, 
    0x25, 0x3e, 0x90, 0x3f, 0xc5, 0x62, 0x20, 0x3f, 0xd8, 0x3c, 0x38, 0xbe, 
    0x0d, 0x0d, 0xe2, 0xbe, 0x47, 0xba, 0x9a, 0xbe, 0xfd, 0xd1, 0x15, 0xbf, 
    0x92, 0x59, 0xae, 0x3e, 0x43, 0x8e, 0x9a, 0x3e, 0xb6, 0x44, 0xa0, 0xbe, 
    0x6a, 0x04, 0xc8, 0x3e, 0x3f, 0xa4, 0x8f, 0x3e, 0x8d, 0xd1, 0xb2, 0xbb, 
    0x3b, 0x27, 0x6f, 0x3e, 0xd2, 0xfc, 0xf3, 0x3e, 0x46, 0x80, 0x4b, 0x3f, 
    0x90, 0x49, 0xf4, 0x3c, 0x2b, 0x2d, 0xa4, 0x3e, 0x5a, 0x5c, 0x1e, 0x3e, 
    0x39, 0x85, 0x48, 0x3f, 0xff, 0xea, 0x24, 0x3f, 0x62, 0xa3, 0x3b, 0x3f, 
    0xb4, 0xbb, 0x0e, 0xbf, 0x56, 0xf6, 0xd1, 0x3e, 0x8b, 0x6b, 0xba, 0x3e, 
    0x6c, 0xf8, 0xc6, 0xbe, 0xe0, 0xa8, 0xb1, 0x3e, 0x68, 0xe6, 0xeb, 0x3e, 
    0x9a, 0x8f, 0x72, 0xbd, 0xd9, 0x40, 0x18, 0x3f, 0x2a, 0x16, 0x38, 0x3c, 
    0xe4, 0x65, 0x68, 0x3e, 0x8a, 0xec, 0x0b, 0x3f, 0xa5, 0x09, 0xe1, 0x3e, 
    0x26, 0xe5, 0x36, 0xbd, 0x95, 0x15, 0x38, 0x3e, 0x13, 0x4f, 0x7b, 0x3e, 
    0x2a, 0x1e, 0x2d, 0xbf, 0x5d, 0x12, 0xd3, 0xbe, 0x1a, 0xe1, 0x37, 0xbf, 
    0xaf, 0x1a, 0x2c, 0x3f, 0xbd, 0xdd, 0xb5, 0x3e, 0xc0, 0x75, 0x23, 0x3f, 
    0x33, 0xf7, 0x79, 0x3e, 0x77, 0xc3, 0x19, 0x3e, 0xbc, 0xa5, 0xff, 0x3e, 
    0x76, 0xe0, 0xc0, 0x3e, 0x37, 0x0d, 0x9e, 0x3e, 0x27, 0xf0, 0xf2, 0xbb, 
    0x3f, 0xb4, 0x42, 0x3f, 0xfe, 0xe7, 0xd5, 0x3c, 0x48, 0x59, 0x5d, 0xbf, 
    0xc7, 0x1c, 0x27, 0x3f, 0x59, 0x92, 0x1b, 0x3e, 0x68, 0x99, 0x4b, 0xbf, 
    0x06, 0x06, 0x75, 0x3f, 0x52, 0xe6, 0x7d, 0xbd, 0x87, 0x15, 0x6a, 0xbf, 
    0xee, 0xf8, 0xff, 0xff, 0x04, 0x00, 0x00, 0x00, 0x08, 0x00, 0x00, 0x00, 
    0x01, 0x00, 0x00, 0x00, 0x02, 0x00, 0x00, 0x00, 0x02, 0xf9, 0xff, 0xff, 
    0x04, 0x00, 0x00, 0x00, 0x28, 0x00, 0x00, 0x00, 0x55, 0x52, 0x58, 0xbd, 
    0x68, 0xca, 0xb5, 0x3d, 0x15, 0x0a, 0xa4, 0xb9, 0x39, 0x84, 0x5f, 0xbd, 
    0x36, 0xaf, 0xda, 0x3c, 0xf1, 0x47, 0x55, 0x3d, 0x43, 0x7f, 0xe0, 0xba, 
    0x48, 0x04, 0x31, 0x3d, 0x2a, 0xd9, 0x9d, 0xbd, 0x9d, 0xde, 0x37, 0xbd, 
    0x36, 0xf9, 0xff, 0xff, 0x04, 0x00, 0x00, 0x00, 0x80, 0x02, 0x00, 0x00, 
    0x44, 0xa8, 0x39, 0x3e, 0x35, 0x60, 0xc0, 0x3e, 0x6b, 0xa1, 0x56, 0xbf, 
    0x24, 0x1b, 0x16, 0xbf, 0x17, 0xfc, 0xd9, 0x3e, 0x0c, 0x53, 0x36, 0xbd, 
    0x33, 0x58, 0x1e, 0xbe, 0x0a, 0x16, 0x52, 0xbe, 0xd6, 0x28, 0x83, 0xbf, 
    0x9e, 0xcf, 0x2a, 0xbf, 0x87, 0x99, 0x93, 0x3f, 0x05, 0xff, 0x98, 0xbf, 
    0xd5, 0xbf, 0xc1, 0x3e, 0x02, 0x17, 0x14, 0xbf, 0x30, 0xef, 0x5c, 0x3f, 
    0xed, 0xdb, 0x92, 0xbf, 0xad, 0x01, 0x81, 0xb8, 0xf9, 0x7e, 0xaa, 0xbf, 
    0xf3, 0x2d, 0x59, 0x3e, 0x07, 0x8a, 0xac, 0xbf, 0x9e, 0xf0, 0x8b, 0xbf, 
    0x43, 0xfc, 0x80, 0x3f, 0x62, 0x29, 0x76, 0xbf, 0x2b, 0x33, 0xe6, 0xbf, 
    0xa5, 0x3e, 0x30, 0x3f, 0xb8, 0xd8, 0x91, 0x3f, 0x20, 0x53, 0x22, 0xbf, 
    0x88, 0x44, 0x79, 0x3f, 0x27, 0xf7, 0xe3, 0xbe, 0x5f, 0xab, 0x8f, 0x3f, 
    0x3a, 0x75, 0x99, 0x3f, 0xf6, 0xd2, 0xec, 0x3e, 0x32, 0x92, 0x95, 0xbe, 
    0x71, 0x2b, 0x29, 0xbd, 0x23, 0x61, 0x40, 0xbe, 0xa4, 0xb2, 0x3c, 0x3f, 
    0x92, 0xba, 0x02, 0x3f, 0xc7, 0x07, 0xa1, 0xbe, 0xa2, 0xb1, 0x5b, 0x3f, 
    0x37, 0xff, 0x66, 0x3e, 0x91, 0xcc, 0x84, 0xbe, 0xce, 0x79, 0x34, 0xbf, 
    0x59, 0xda, 0x46, 0x3e, 0x1a, 0xeb, 0xfc, 0xbe, 0x7f, 0xfe, 0xb6, 0x3d, 
    0x8f, 0x00, 0x10, 0x3e, 0x8f, 0xf8, 0x44, 0xbf, 0xab, 0xe6, 0xc1, 0x3d, 
    0x46, 0x74, 0x8d, 0xbe, 0xe4, 0xc9, 0x12, 0x3f, 0x2e, 0x9d, 0x2d, 0xbf, 
    0xfe, 0xaa, 0x7c, 0x3f, 0x79, 0xa8, 0x02, 0x3f, 0x88, 0x2d, 0x12, 0x3f, 
    0x4d, 0x01, 0x0f, 0x3f, 0x59, 0x37, 0x37, 0x3f, 0xca, 0x7f, 0xea, 0xbd, 
    0x24, 0xb7, 0xf2, 0x3d, 0xa3, 0x0c, 0x15, 0xbf, 0x74, 0x2a, 0x83, 0xbe, 
    0x19, 0x9c, 0x31, 0xbf, 0xef, 0x4f, 0x86, 0xbe, 0x8b, 0x14, 0x81, 0xbf, 
    0xe8, 0x69, 0xc4, 0xbe, 0xcd, 0xa8, 0xd2, 0xbe, 0xcf, 0xed, 0x63, 0xbe, 
    0x92, 0x70, 0x16, 0xbe, 0x48, 0x87, 0x1d, 0xbf, 0xe8, 0x8b, 0x35, 0xbf, 
    0x94, 0x01, 0x13, 0x3f, 0xb5, 0x3d, 0xbe, 0x3e, 0x8d, 0x3e, 0xfd, 0xbe, 
    0x97, 0x57, 0x3f, 0x3c, 0x61, 0xc4, 0xd2, 0xbe, 0x74, 0xfb, 0xdf, 0x3e, 
    0x67, 0xa7, 0x19, 0x3f, 0x64, 0x54, 0x2f, 0x3f, 0x19, 0x69, 0xf3, 0xbe, 
    0x7f, 0x61, 0x29, 0x3f, 0x60, 0x32, 0x30, 0xbf, 0xaf, 0x28, 0xdb, 0x3e, 
    0x50, 0x61, 0xbf, 0x3e, 0xfa, 0xe1, 0x22, 0x3f, 0x96, 0x73, 0x30, 0x3f, 
    0x78, 0x5e, 0x28, 0x3f, 0x27, 0xe4, 0x27, 0xbf, 0xfc, 0xed, 0x32, 0x3e, 
    0xfe, 0x99, 0x37, 0x3f, 0x86, 0x26, 0xff, 0xbd, 0xe1, 0x90, 0x9b, 0xbe, 
    0xcc, 0x39, 0x10, 0xbe, 0xf4, 0xf3, 0x86, 0xbc, 0xf7, 0x16, 0x39, 0xbf, 
    0xdd, 0x57, 0xbf, 0x3e, 0xd2, 0xc0, 0xc7, 0xbf, 0xff, 0x6d, 0x34, 0xbe, 
    0x93, 0x6f, 0x72, 0xbe, 0x50, 0x2f, 0x31, 0x3e, 0x21, 0x9f, 0xee, 0xbe, 
    0x73, 0x37, 0xc2, 0xbd, 0xc7, 0x11, 0x88, 0xbe, 0x57, 0x1a, 0x75, 0xbe, 
    0x03, 0xd5, 0x2b, 0xbe, 0x5b, 0x99, 0x1a, 0xbe, 0x2b, 0x29, 0xa8, 0x3e, 
    0xd8, 0xdf, 0x60, 0x3d, 0x9c, 0x6d, 0x78, 0x3e, 0x84, 0x1d, 0xf0, 0xbc, 
    0xf4, 0x4f, 0xe7, 0x3e, 0x13, 0x2b, 0xce, 0xbe, 0xad, 0x01, 0x9a, 0x3e, 
    0x44, 0x53, 0xc5, 0xbd, 0x87, 0x10, 0xc6, 0xbe, 0xd3, 0xfa, 0xa3, 0xbe, 
    0x9c, 0x52, 0x01, 0x3f, 0x72, 0xc8, 0x88, 0x3d, 0x7f, 0x4f, 0x82, 0x3c, 
    0xbd, 0x9c, 0x3e, 0x3e, 0x92, 0xdb, 0x04, 0xbd, 0xc0, 0xab, 0x13, 0xbf, 
    0x32, 0x5a, 0x90, 0x3e, 0x0c, 0xb2, 0x0a, 0xbe, 0x00, 0x3e, 0x84, 0xbe, 
    0x98, 0x33, 0x52, 0xbe, 0xa3, 0xd3, 0x17, 0xbe, 0xc0, 0x7d, 0x08, 0x3f, 
    0x2e, 0x28, 0x4b, 0x3e, 0xc7, 0xfb, 0x32, 0x3f, 0x1e, 0x54, 0xd9, 0xbe, 
    0xdb, 0x5c, 0xeb, 0x3e, 0x2f, 0xd6, 0x26, 0xbf, 0x7e, 0x21, 0xf3, 0xbe, 
    0x1d, 0x52, 0xdf, 0x3e, 0x58, 0x4e, 0x41, 0xbf, 0x3b, 0xbe, 0xb2, 0xbf, 
    0x94, 0x2c, 0x13, 0x3f, 0xf0, 0xbb, 0x00, 0xbe, 0x9a, 0x39, 0x92, 0x3d, 
    0x2a, 0xb8, 0xa7, 0x3e, 0x1e, 0xf8, 0xb1, 0xbe, 0x22, 0xfa, 0xc8, 0x3e, 
    0xcb, 0x62, 0xa1, 0x3d, 0x61, 0x41, 0xe2, 0x3d, 0x16, 0xf6, 0xfd, 0xbe, 
    0xe5, 0xc4, 0x8f, 0xbe, 0x5f, 0x3b, 0xe3, 0xbe, 0x0a, 0x93, 0x01, 0xbe, 
    0xef, 0xd2, 0xf2, 0xbe, 0xc3, 0x00, 0xbf, 0x3e, 0x62, 0x46, 0x8d, 0x3e, 
    0x64, 0xec, 0xd0, 0xbd, 0x79, 0x6e, 0x4c, 0x3d, 0x4d, 0xe9, 0x77, 0xbd, 
    0x1e, 0x08, 0x81, 0x3e, 0xd2, 0x9d, 0x85, 0x3d, 0x82, 0x97, 0xb1, 0xbe, 
    0x40, 0x43, 0x00, 0x3f, 0xd2, 0xf5, 0xc3, 0x3e, 0x60, 0x70, 0x9b, 0xbd, 
    0x9e, 0xbb, 0x82, 0xbe, 0xc2, 0xfb, 0xff, 0xff, 0x04, 0x00, 0x00, 0x00, 
    0x20, 0x01, 0x00, 0x00, 0x8b, 0x14, 0xae, 0x3f, 0xbe, 0xa8, 0xe9, 0x3e, 
    0x1e, 0xd7, 0xb1, 0xbf, 0xc8, 0x67, 0x85, 0x3e, 0x72, 0xb7, 0x3d, 0xbf, 
    0xb4, 0x32, 0x88, 0x3e, 0x90, 0x65, 0x28, 0x3f, 0xb3, 0x42, 0xae, 0x3f, 
    0x97, 0x92, 0xb5, 0x3f, 0x17, 0x8c, 0xa9, 0x3e, 0xd0, 0x20, 0x97, 0xbf, 
    0x3b, 0x60, 0x39, 0xbf, 0xc9, 0xb5, 0x20, 0x3f, 0xa7, 0xb7, 0xaa, 0x3e, 
    0x63, 0x83, 0x12, 0x3f, 0x9e, 0x7c, 0x97, 0x3f, 0x26, 0x92, 0xa4, 0x3f, 
    0x25, 0x8f, 0xa2, 0xbe, 0x27, 0xd8, 0x9c, 0xbf, 0x80, 0x11, 0x3b, 0xbf, 
    0x4e, 0xb1, 0x5f, 0x3f, 0x77, 0x45, 0x7a, 0x3e, 0xff, 0x15, 0x22, 0x3f, 
    0x42, 0xf4, 0x93, 0x3f, 0x3f, 0x41, 0xa3, 0x3f, 0x8c, 0x9d, 0xb9, 0x3e, 
    0x3a, 0x8a, 0x69, 0xbf, 0xc3, 0x85, 0x17, 0x3f, 0x1f, 0x2a, 0xd9, 0xbe, 
    0x9a, 0x0d, 0x07, 0x3f, 0xa7, 0xcf, 0x42, 0x3f, 0xb4, 0x9c, 0x7e, 0x3f, 
    0x64, 0xdb, 0x83, 0x3f, 0xe6, 0x22, 0xcd, 0x3e, 0xde, 0xed, 0x15, 0xbf, 
    0x8e, 0x81, 0x79, 0xbd, 0x0c, 0x82, 0xdd, 0x3e, 0x21, 0x57, 0x0f, 0x3f, 
    0xb4, 0x65, 0x25, 0x3f, 0x6c, 0xbf, 0xb1, 0x3f, 0x3b, 0xa5, 0x5d, 0x3f, 
    0x1d, 0xb9, 0x55, 0xbf, 0xa1, 0xbe, 0x8b, 0xbf, 0xf2, 0x28, 0x2b, 0x3f, 
    0x32, 0x29, 0x57, 0x3f, 0xed, 0xe3, 0x30, 0x3f, 0xd6, 0xe6, 0x3a, 0x3f, 
    0xf2, 0x39, 0x8e, 0x3f, 0xdd, 0x90, 0x89, 0x3f, 0x08, 0xad, 0x2e, 0x3f, 
    0xcf, 0xe9, 0xa0, 0xbf, 0x70, 0x0e, 0x6a, 0xbf, 0x89, 0xc0, 0xb3, 0x3e, 
    0xb2, 0x21, 0x83, 0x3f, 0x0f, 0x62, 0xe0, 0x3e, 0xc2, 0x23, 0xa1, 0x3f, 
    0x68, 0x78, 0xb1, 0x3f, 0x4c, 0xa5, 0xd3, 0x3e, 0x4b, 0xef, 0x34, 0xbf, 
    0x78, 0x01, 0x11, 0xbf, 0x2d, 0x2f, 0x38, 0x3f, 0x1e, 0x51, 0x5f, 0x3f, 
    0x4d, 0x9f, 0x0f, 0x3f, 0x9d, 0xea, 0xba, 0x3f, 0x38, 0x2c, 0x9f, 0x3f, 
    0x9b, 0x27, 0x7a, 0xbf, 0xba, 0x85, 0x88, 0xbf, 0x2a, 0xc1, 0x42, 0xbf, 
    0x9b, 0x12, 0x1d, 0x3f, 0x18, 0x26, 0x14, 0x3f, 0x21, 0x13, 0x4e, 0x3f, 
    0xcf, 0xdc, 0xb5, 0x3f, 0xee, 0xfc, 0xff, 0xff, 0x04, 0x00, 0x00, 0x00, 
    0x00, 0x02, 0x00, 0x00, 0x9e, 0x95, 0x72, 0x3e, 0xfa, 0x02, 0x69, 0xbe, 
    0xdd, 0xa1, 0xb2, 0xbe, 0x19, 0x9a, 0x30, 0x3e, 0x11, 0x80, 0xf8, 0x3d, 
    0xe9, 0x3a, 0x88, 0xbe, 0x16, 0xdb, 0xbd, 0xbe, 0x24, 0x0d, 0x50, 0xbc, 
    0x1e, 0x25, 0x99, 0x3f, 0x1c, 0x92, 0x03, 0xbf, 0x32, 0xf2, 0x73, 0xbf, 
    0x8f, 0x2c, 0x34, 0xbf, 0x4b, 0xee, 0x55, 0xbf, 0xa7, 0x74, 0x91, 0x3e, 
    0xa4, 0x0b, 0x39, 0x3f, 0x8e, 0xa7, 0x2b, 0xbc, 0x98, 0x06, 0xaf, 0x3e, 
    0xd6, 0x0b, 0x44, 0x3e, 0x3a, 0x73, 0x2e, 0x3f, 0x27, 0xac, 0x5e, 0x3f, 
    0x56, 0x11, 0x45, 0xbe, 0x0f, 0x2b, 0x01, 0x3f, 0xd1, 0x0b, 0x9c, 0xbb, 
    0x6a, 0x23, 0xdd, 0xbe, 0x10, 0x1b, 0xb8, 0x3f, 0x69, 0x42, 0x4f, 0xbf, 
    0xd5, 0x46, 0x26, 0xbe, 0x6a, 0x23, 0x51, 0x3e, 0x47, 0x29, 0x8b, 0xbf, 
    0x68, 0xe5, 0x94, 0x3e, 0xbc, 0x13, 0x1f, 0x3f, 0xec, 0x9c, 0xb1, 0xbf, 
    0x85, 0x3f, 0x97, 0x3f, 0x9a, 0x6d, 0xbd, 0xbe, 0xb7, 0x5d, 0xe9, 0xbe, 
    0x8c, 0x73, 0x2b, 0xbf, 0x9c, 0x00, 0xf5, 0xbe, 0xa4, 0xad, 0x17, 0x3f, 
    0x6e, 0x2b, 0xef, 0x3e, 0xcd, 0x43, 0xff, 0xbe, 0xc4, 0x32, 0x00, 0xc0, 
    0x11, 0x6a, 0xaa, 0x3f, 0x3a, 0x86, 0x3e, 0xbe, 0x17, 0xac, 0x5c, 0x3f, 
    0x2a, 0x71, 0x93, 0xbf, 0xd8, 0xea, 0xf7, 0x3e, 0x20, 0x5e, 0x8b, 0xbd, 
    0x35, 0x29, 0x84, 0x3f, 0xc6, 0x0d, 0x52, 0x3f, 0x81, 0xf3, 0x9e, 0xbc, 
    0xf2, 0x52, 0xbe, 0x3d, 0x68, 0x40, 0x22, 0xbf, 0x90, 0xc7, 0x0c, 0xbe, 
    0x30, 0xdd, 0x8a, 0x3e, 0xc2, 0x46, 0x0a, 0xbe, 0xd1, 0x2a, 0x27, 0xbf, 
    0xe7, 0xcd, 0xba, 0x3f, 0x2b, 0x43, 0xe4, 0xbe, 0xf3, 0xdf, 0x08, 0xbf, 
    0x75, 0x5a, 0x2a, 0x3e, 0x09, 0xfc, 0x31, 0xbf, 0xa6, 0xb4, 0x72, 0x3e, 
    0xac, 0xb6, 0xc5, 0x3e, 0x54, 0x9c, 0x9c, 0xbc, 0x52, 0x40, 0x5b, 0xbf, 
    0xef, 0x4a, 0xef, 0xbd, 0x0f, 0x55, 0x69, 0x3f, 0x57, 0x17, 0x9f, 0x3f, 
    0x82, 0xee, 0x1e, 0xbf, 0x87, 0xd1, 0x85, 0x3f, 0xff, 0x85, 0x30, 0xbf, 
    0xe5, 0x02, 0x2e, 0xbe, 0x9c, 0x9b, 0x94, 0xbf, 0x94, 0x48, 0x57, 0xbf, 
    0x86, 0x1c, 0x4d, 0x3f, 0x69, 0xca, 0x68, 0x3f, 0x5a, 0xd7, 0xa3, 0xbf, 
    0xb7, 0x70, 0x6a, 0x3f, 0x51, 0xa4, 0x87, 0xbf, 0x6e, 0x6b, 0xb2, 0xbe, 
    0x77, 0x71, 0x11, 0xba, 0x5f, 0xf9, 0x15, 0x3f, 0xb2, 0x74, 0x91, 0xbe, 
    0x29, 0xf2, 0x91, 0xbf, 0x9a, 0xe3, 0xd3, 0x3c, 0x49, 0x5a, 0x81, 0x3e, 
    0xff, 0xc8, 0x9e, 0x3e, 0x60, 0xa5, 0xc0, 0x3f, 0x45, 0xb0, 0x21, 0xbf, 
    0x8e, 0x29, 0xe8, 0xbe, 0x12, 0x5d, 0x17, 0x3f, 0x0f, 0x5a, 0x86, 0x3f, 
    0x26, 0x8f, 0x72, 0x3d, 0x71, 0xbb, 0x9b, 0x3e, 0x0c, 0x86, 0x15, 0xbf, 
    0x1d, 0x31, 0x2a, 0x3f, 0x4b, 0x4b, 0x1f, 0xbf, 0xc4, 0xc5, 0xe0, 0x3e, 
    0x48, 0x4b, 0xbf, 0xbc, 0x38, 0xbc, 0x21, 0xbf, 0xe0, 0x45, 0x31, 0x3f, 
    0x20, 0xe7, 0xa6, 0x3e, 0x77, 0xb1, 0x90, 0x3e, 0x60, 0x29, 0x8e, 0x3f, 
    0xf1, 0x4a, 0x50, 0xbf, 0xcb, 0xd8, 0x91, 0xbf, 0x5b, 0xf4, 0xb4, 0x3e, 
    0x9b, 0xcf, 0x24, 0x3f, 0x7d, 0x57, 0xb5, 0xbf, 0xdd, 0x0c, 0x80, 0x3f, 
    0xf2, 0x06, 0x72, 0xbf, 0xec, 0x21, 0xe3, 0x3d, 0x89, 0xa7, 0x53, 0xbf, 
    0xc6, 0x06, 0xad, 0x3f, 0x34, 0xb6, 0xc4, 0x3f, 0xe6, 0xe9, 0xf8, 0x3d, 
    0x3d, 0xaa, 0xa4, 0x3f, 0x41, 0x87, 0xe7, 0xbe, 0x8c, 0x43, 0x47, 0x3e, 
    0xb4, 0xc3, 0x98, 0x3f, 0x83, 0x61, 0x6e, 0xbd, 0x8b, 0x67, 0x0b, 0x3f, 
    0xf0, 0x77, 0x71, 0x3f, 0x87, 0x65, 0x6f, 0x3f, 0x6d, 0x7f, 0x0c, 0x3f, 
    0xda, 0x28, 0xeb, 0x3d, 0x41, 0xb0, 0xeb, 0x3e, 0x83, 0x7b, 0x32, 0xbf, 
    0xfa, 0xfe, 0xff, 0xff, 0x04, 0x00, 0x00, 0x00, 0x20, 0x00, 0x00, 0x00, 
    0x7a, 0xa4, 0x72, 0x3d, 0xc1, 0xe2, 0xb0, 0xbc, 0xb9, 0x27, 0xfd, 0x3e, 
    0xda, 0x96, 0x2d, 0x3f, 0x60, 0xc2, 0x51, 0xbe, 0xb3, 0xcd, 0xa3, 0x3e, 
    0x2c, 0x12, 0x64, 0x3d, 0x10, 0x9c, 0xb9, 0xbc, 0x26, 0xff, 0xff, 0xff, 
    0x04, 0x00, 0x00, 0x00, 0x40, 0x00, 0x00, 0x00, 0x31, 0xda, 0x13, 0xbd, 
    0xba, 0x12, 0x98, 0x3e, 0xd4, 0x78, 0x70, 0x3e, 0x4a, 0xb3, 0x3a, 0x3e, 
    0x89, 0x25, 0xa8, 0x3d, 0x4a, 0x67, 0xbb, 0x3d, 0x14, 0x01, 0xb0, 0xbd, 
    0x6e, 0x4a, 0x02, 0x3d, 0x6c, 0xb7, 0x9f, 0x3e, 0x8b, 0x97, 0x4d, 0x3e, 
    0x14, 0x72, 0xac, 0x3c, 0x08, 0x5b, 0xda, 0x3e, 0xd9, 0xcf, 0x4b, 0xbd, 
    0x9b, 0xb4, 0x74, 0x3e, 0xdb, 0x05, 0x24, 0x3e, 0x67, 0x30, 0x28, 0x3e, 
    0x9c, 0xf6, 0xff, 0xff, 0xa0, 0xf6, 0xff, 0xff, 0x0f, 0x00, 0x00, 0x00, 
    0x4d, 0x4c, 0x49, 0x52, 0x20, 0x43, 0x6f, 0x6e, 0x76, 0x65, 0x72, 0x74, 
    0x65, 0x64, 0x2e, 0x00, 0x01, 0x00, 0x00, 0x00, 0x14, 0x00, 0x00, 0x00, 
    0x00, 0x00, 0x0e, 0x00, 0x18, 0x00, 0x14, 0x00, 0x10, 0x00, 0x0c, 0x00, 
    0x08, 0x00, 0x04, 0x00, 0x0e, 0x00, 0x00, 0x00, 0x14, 0x00, 0x00, 0x00, 
    0x1c, 0x00, 0x00, 0x00, 0xe8, 0x01, 0x00, 0x00, 0xec, 0x01, 0x00, 0x00, 
    0xf0, 0x01, 0x00, 0x00, 0x04, 0x00, 0x00, 0x00, 0x6d, 0x61, 0x69, 0x6e, 
    0x00, 0x00, 0x00, 0x00, 0x06, 0x00, 0x00, 0x00, 0x84, 0x01, 0x00, 0x00, 
    0x1c, 0x01, 0x00, 0x00, 0xbc, 0x00, 0x00, 0x00, 0x88, 0x00, 0x00, 0x00, 
    0x40, 0x00, 0x00, 0x00, 0x04, 0x00, 0x00, 0x00, 0x06, 0xff, 0xff, 0xff, 
    0x1c, 0x00, 0x00, 0x00, 0x00, 0x00, 0x00, 0x09, 0x1c, 0x00, 0x00, 0x00, 
    0x20, 0x00, 0x00, 0x00, 0x04, 0x00, 0x00, 0x00, 0x00, 0x00, 0x06, 0x00, 
    0x08, 0x00, 0x04, 0x00, 0x06, 0x00, 0x00, 0x00, 0x00, 0x00, 0x80, 0x3f, 
    0x01, 0x00, 0x00, 0x00, 0x0f, 0x00, 0x00, 0x00, 0x01, 0x00, 0x00, 0x00, 
    0x0e, 0x00, 0x00, 0x00, 0xca, 0xff, 0xff, 0xff, 0x14, 0x00, 0x00, 0x00, 
    0x00, 0x00, 0x00, 0x08, 0x10, 0x00, 0x00, 0x00, 0x14, 0x00, 0x00, 0x00, 
    0x03, 0x00, 0x00, 0x00, 0x60, 0xf7, 0xff, 0xff, 0x01, 0x00, 0x00, 0x00, 
    0x0e, 0x00, 0x00, 0x00, 0x03, 0x00, 0x00, 0x00, 0x0d, 0x00, 0x00, 0x00, 
    0x05, 0x00, 0x00, 0x00, 0x06, 0x00, 0x00, 0x00, 0x00, 0x00, 0x0e, 0x00, 
    0x18, 0x00, 0x14, 0x00, 0x10, 0x00, 0x0c, 0x00, 0x0b, 0x00, 0x04, 0x00, 
    0x0e, 0x00, 0x00, 0x00, 0x14, 0x00, 0x00, 0x00, 0x00, 0x00, 0x00, 0x1b, 
    0x10, 0x00, 0x00, 0x00, 0x14, 0x00, 0x00, 0x00, 0x02, 0x00, 0x00, 0x00, 
    0xa4, 0xf7, 0xff, 0xff, 0x01, 0x00, 0x00, 0x00, 0x0d, 0x00, 0x00, 0x00, 
    0x02, 0x00, 0x00, 0x00, 0x0c, 0x00, 0x00, 0x00, 0x07, 0x00, 0x00, 0x00, 
    0x4e, 0xff, 0xff, 0xff, 0x1c, 0x00, 0x00, 0x00, 0x00, 0x00, 0x00, 0x01, 
    0x28, 0x00, 0x00, 0x00, 0x2c, 0x00, 0x00, 0x00, 0x0c, 0x00, 0x14, 0x00, 
    0x13, 0x00, 0x0c, 0x00, 0x08, 0x00, 0x07, 0x00, 0x0c, 0x00, 0x00, 0x00, 
    0x00, 0x00, 0x00, 0x01, 0x01, 0x00, 0x00, 0x00, 0x01, 0x00, 0x00, 0x00, 
    0x00, 0x00, 0x00, 0x01, 0x01, 0x00, 0x00, 0x00, 0x0c, 0x00, 0x00, 0x00, 
    0x03, 0x00, 0x00, 0x00, 0x0b, 0x00, 0x00, 0x00, 0x03, 0x00, 0x00, 0x00, 
    0x01, 0x00, 0x00, 0x00, 0x00, 0x00, 0x0e, 0x00, 0x1a, 0x00, 0x14, 0x00, 
    0x10, 0x00, 0x0c, 0x00, 0x0b, 0x00, 0x04, 0x00, 0x0e, 0x00, 0x00, 0x00, 
    0x24, 0x00, 0x00, 0x00, 0x00, 0x00, 0x00, 0x02, 0x30, 0x00, 0x00, 0x00, 
    0x34, 0x00, 0x00, 0x00, 0x01, 0x00, 0x00, 0x00, 0x00, 0x00, 0x0e, 0x00, 
    0x14, 0x00, 0x00, 0x00, 0x10, 0x00, 0x0c, 0x00, 0x08, 0x00, 0x07, 0x00, 
    0x0e, 0x00, 0x00, 0x00, 0x00, 0x00, 0x00, 0x01, 0x01, 0x00, 0x00, 0x00, 
    0x01, 0x00, 0x00, 0x00, 0x01, 0x00, 0x00, 0x00, 0x01, 0x00, 0x00, 0x00, 
    0x0b, 0x00, 0x00, 0x00, 0x03, 0x00, 0x00, 0x00, 0x0a, 0x00, 0x00, 0x00, 
    0x04, 0x00, 0x00, 0x00, 0x02, 0x00, 0x00, 0x00, 0x00, 0x00, 0x0e, 0x00, 
    0x14, 0x00, 0x00, 0x00, 0x10, 0x00, 0x0c, 0x00, 0x0b, 0x00, 0x04, 0x00, 
    0x0e, 0x00, 0x00, 0x00, 0x1c, 0x00, 0x00, 0x00, 0x00, 0x00, 0x00, 0x01, 
    0x24, 0x00, 0x00, 0x00, 0x28, 0x00, 0x00, 0x00, 0x0c, 0x00, 0x10, 0x00, 
    0x00, 0x00, 0x0c, 0x00, 0x08, 0x00, 0x07, 0x00, 0x0c, 0x00, 0x00, 0x00, 
    0x00, 0x00, 0x00, 0x01, 0x02, 0x00, 0x00, 0x00, 0x02, 0x00, 0x00, 0x00, 
    0x01, 0x00, 0x00, 0x00, 0x0a, 0x00, 0x00, 0x00, 0x03, 0x00, 0x00, 0x00, 
    0x00, 0x00, 0x00, 0x00, 0x08, 0x00, 0x00, 0x00, 0x09, 0x00, 0x00, 0x00, 
    0x01, 0x00, 0x00, 0x00, 0x0f, 0x00, 0x00, 0x00, 0x01, 0x00, 0x00, 0x00, 
    0x00, 0x00, 0x00, 0x00, 0x10, 0x00, 0x00, 0x00, 0xf8, 0x06, 0x00, 0x00, 
    0xa4, 0x06, 0x00, 0x00, 0x50, 0x06, 0x00, 0x00, 0x08, 0x06, 0x00, 0x00, 
    0xc0, 0x05, 0x00, 0x00, 0x80, 0x05, 0x00, 0x00, 0x44, 0x05, 0x00, 0x00, 
    0xcc, 0x04, 0x00, 0x00, 0x54, 0x04, 0x00, 0x00, 0xb8, 0x03, 0x00, 0x00, 
    0xf8, 0x02, 0x00, 0x00, 0x1c, 0x02, 0x00, 0x00, 0x5c, 0x01, 0x00, 0x00, 
    0xe8, 0x00, 0x00, 0x00, 0x60, 0x00, 0x00, 0x00, 0x04, 0x00, 0x00, 0x00, 
    0x5e, 0xf9, 0xff, 0xff, 0x00, 0x00, 0x00, 0x01, 0x14, 0x00, 0x00, 0x00, 
    0x1c, 0x00, 0x00, 0x00, 0x1c, 0x00, 0x00, 0x00, 0x10, 0x00, 0x00, 0x00, 
    0x34, 0x00, 0x00, 0x00, 0x02, 0x00, 0x00, 0x00, 0xff, 0xff, 0xff, 0xff, 
    0x0a, 0x00, 0x00, 0x00, 0x40, 0xf9, 0xff, 0xff, 0x1b, 0x00, 0x00, 0x00, 
    0x53, 0x74, 0x61, 0x74, 0x65, 0x66, 0x75, 0x6c, 0x50, 0x61, 0x72, 0x74, 
    0x69, 0x74, 0x69, 0x6f, 0x6e, 0x65, 0x64, 0x43, 0x61, 0x6c, 0x6c, 0x5f, 
    0x31, 0x3a, 0x30, 0x00, 0x02, 0x00, 0x00, 0x00, 0x01, 0x00, 0x00, 0x00, 
    0x0a, 0x00, 0x00, 0x00, 0xb6, 0xf9, 0xff, 0xff, 0x00, 0x00, 0x00, 0x01, 
    0x14, 0x00, 0x00, 0x00, 0x1c, 0x00, 0x00, 0x00, 0x1c, 0x00, 0x00, 0x00, 
    0x0f, 0x00, 0x00, 0x00, 0x60, 0x00, 0x00, 0x00, 0x02, 0x00, 0x00, 0x00, 
    0xff, 0xff, 0xff, 0xff, 0x0a, 0x00, 0x00, 0x00, 0x98, 0xf9, 0xff, 0xff, 
    0x44, 0x00, 0x00, 0x00, 0x4d, 0x69, 0x6e, 0x69, 0x5f, 0x4d, 0x6f, 0x62, 
    0x69, 0x6c, 0x65, 0x4e, 0x65, 0x74, 0x5f, 0x31, 0x2f, 0x64, 0x65, 0x6e, 
    0x73, 0x65, 0x5f, 0x32, 0x5f, 0x31, 0x2f, 0x4d, 0x61, 0x74, 0x4d, 0x75, 
    0x6c, 0x3b, 0x4d, 0x69, 0x6e, 0x69, 0x5f, 0x4d, 0x6f, 0x62, 0x69, 0x6c, 
    0x65, 0x4e, 0x65, 0x74, 0x5f, 0x31, 0x2f, 0x64, 0x65, 0x6e, 0x73, 0x65, 
    0x5f, 0x32, 0x5f, 0x31, 0x2f, 0x42, 0x69, 0x61, 0x73, 0x41, 0x64, 0x64, 
    0x00, 0x00, 0x00, 0x00, 0x02, 0x00, 0x00, 0x00, 0x01, 0x00, 0x00, 0x00, 
    0x0a, 0x00, 0x00, 0x00, 0x3a, 0xfa, 0xff, 0xff, 0x00, 0x00, 0x00, 0x01, 
    0x14, 0x00, 0x00, 0x00, 0x1c, 0x00, 0x00, 0x00, 0x1c, 0x00, 0x00, 0x00, 
    0x0e, 0x00, 0x00, 0x00, 0x4c, 0x00, 0x00, 0x00, 0x02, 0x00, 0x00, 0x00, 
    0xff, 0xff, 0xff, 0xff, 0x10, 0x00, 0x00, 0x00, 0x1c, 0xfa, 0xff, 0xff, 
    0x32, 0x00, 0x00, 0x00, 0x4d, 0x69, 0x6e, 0x69, 0x5f, 0x4d, 0x6f, 0x62, 
    0x69, 0x6c, 0x65, 0x4e, 0x65, 0x74, 0x5f, 0x31, 0x2f, 0x67, 0x6c, 0x6f, 
    0x62, 0x61, 0x6c, 0x5f, 0x61, 0x76, 0x65, 0x72, 0x61, 0x67, 0x65, 0x5f, 
    0x70, 0x6f, 0x6f, 0x6c, 0x69, 0x6e, 0x67, 0x32, 0x64, 0x5f, 0x31, 0x5f, 
    0x31, 0x2f, 0x4d, 0x65, 0x61, 0x6e, 0x00, 0x00, 0x02, 0x00, 0x00, 0x00, 
    0x01, 0x00, 0x00, 0x00, 0x10, 0x00, 0x00, 0x00, 0xaa, 0xfa, 0xff, 0xff, 
    0x00, 0x00, 0x00, 0x01, 0x14, 0x00, 0x00, 0x00, 0x24, 0x00, 0x00, 0x00, 
    0x24, 0x00, 0x00, 0x00, 0x0d, 0x00, 0x00, 0x00, 0x90, 0x00, 0x00, 0x00, 
    0x04, 0x00, 0x00, 0x00, 0xff, 0xff, 0xff, 0xff, 0x0e, 0x00, 0x00, 0x00, 
    0x0e, 0x00, 0x00, 0x00, 0x10, 0x00, 0x00, 0x00, 0x94, 0xfa, 0xff, 0xff, 
    0x6d, 0x00, 0x00, 0x00, 0x4d, 0x69, 0x6e, 0x69, 0x5f, 0x4d, 0x6f, 0x62, 
    0x69, 0x6c, 0x65, 0x4e, 0x65, 0x74, 0x5f, 0x31, 0x2f, 0x63, 0x6f, 0x6e, 
    0x76, 0x32, 0x64, 0x5f, 0x36, 0x5f, 0x31, 0x2f, 0x52, 0x65, 0x6c, 0x75, 
    0x3b, 0x4d, 0x69, 0x6e, 0x69, 0x5f, 0x4d, 0x6f, 0x62, 0x69, 0x6c, 0x65, 
    0x4e, 0x65, 0x74, 0x5f, 0x31, 0x2f, 0x63, 0x6f, 0x6e, 0x76, 0x32, 0x64, 
    0x5f, 0x36, 0x5f, 0x31, 0x2f, 0x42, 0x69, 0x61, 0x73, 0x41, 0x64, 0x64, 
    0x3b, 0x4d, 0x69, 0x6e, 0x69, 0x5f, 0x4d, 0x6f, 0x62, 0x69, 0x6c, 0x65, 
    0x4e, 0x65, 0x74, 0x5f, 0x31, 0x2f, 0x63, 0x6f, 0x6e, 0x76, 0x32, 0x64, 
    0x5f, 0x36, 0x5f, 0x31, 0x2f, 0x63, 0x6f, 0x6e, 0x76, 0x6f, 0x6c, 0x75, 
    0x74, 0x69, 0x6f, 0x6e, 0x3b, 0x00, 0x00, 0x00, 0x04, 0x00, 0x00, 0x00, 
    0x01, 0x00, 0x00, 0x00, 0x0e, 0x00, 0x00, 0x00, 0x0e, 0x00, 0x00, 0x00, 
    0x10, 0x00, 0x00, 0x00, 0x66, 0xfb, 0xff, 0xff, 0x00, 0x00, 0x00, 0x01, 
    0x14, 0x00, 0x00, 0x00, 0x24, 0x00, 0x00, 0x00, 0x24, 0x00, 0x00, 0x00, 
    0x0c, 0x00, 0x00, 0x00, 0xac, 0x00, 0x00, 0x00, 0x04, 0x00, 0x00, 0x00, 
    0xff, 0xff, 0xff, 0xff, 0x0e, 0x00, 0x00, 0x00, 0x0e, 0x00, 0x00, 0x00, 
    0x08, 0x00, 0x00, 0x00, 0x50, 0xfb, 0xff, 0xff, 0x89, 0x00, 0x00, 0x00, 
    0x4d, 0x69, 0x6e, 0x69, 0x5f, 0x4d, 0x6f, 0x62, 0x69, 0x6c, 0x65, 0x4e, 
    0x65, 0x74, 0x5f, 0x31, 0x2f, 0x64, 0x65, 0x70, 0x74, 0x68, 0x77, 0x69, 
    0x73, 0x65, 0x5f, 0x63, 0x6f, 0x6e, 0x76, 0x32, 0x64, 0x5f, 0x31, 0x5f, 
    0x31, 0x2f, 0x52, 0x65, 0x6c, 0x75, 0x3b, 0x4d, 0x69, 0x6e, 0x69, 0x5f, 
    0x4d, 0x6f, 0x62, 0x69, 0x6c, 0x65, 0x4e, 0x65, 0x74, 0x5f, 0x31, 0x2f, 
    0x64, 0x65, 0x70, 0x74, 0x68, 0x77, 0x69, 0x73, 0x65, 0x5f, 0x63, 0x6f, 
    0x6e, 0x76, 0x32, 0x64, 0x5f, 0x31, 0x5f, 0x31, 0x2f, 0x42, 0x69, 0x61, 
    0x73, 0x41, 0x64, 0x64, 0x3b, 0x4d, 0x69, 0x6e, 0x69, 0x5f, 0x4d, 0x6f, 
    0x62, 0x69, 0x6c, 0x65, 0x4e, 0x65, 0x74, 0x5f, 0x31, 0x2f, 0x64, 0x65, 
    0x70, 0x74, 0x68, 0x77, 0x69, 0x73, 0x65, 0x5f, 0x63, 0x6f, 0x6e, 0x76, 
    0x32, 0x64, 0x5f, 0x31, 0x5f, 0x31, 0x2f, 0x64, 0x65, 0x70, 0x74, 0x68, 
    0x77, 0x69, 0x73, 0x65, 0x3b, 0x00, 0x00, 0x00, 0x04, 0x00, 0x00, 0x00, 
    0x01, 0x00, 0x00, 0x00, 0x0e, 0x00, 0x00, 0x00, 0x0e, 0x00, 0x00, 0x00, 
    0x08, 0x00, 0x00, 0x00, 0x3e, 0xfc, 0xff, 0xff, 0x00, 0x00, 0x00, 0x01, 
    0x14, 0x00, 0x00, 0x00, 0x24, 0x00, 0x00, 0x00, 0x24, 0x00, 0x00, 0x00, 
    0x0b, 0x00, 0x00, 0x00, 0x90, 0x00, 0x00, 0x00, 0x04, 0x00, 0x00, 0x00, 
    0xff, 0xff, 0xff, 0xff, 0x0e, 0x00, 0x00, 0x00, 0x0e, 0x00, 0x00, 0x00, 
    0x08, 0x00, 0x00, 0x00, 0x28, 0xfc, 0xff, 0xff, 0x6e, 0x00, 0x00, 0x00, 
    0x4d, 0x69, 0x6e, 0x69, 0x5f, 0x4d, 0x6f, 0x62, 0x69, 0x6c, 0x65, 0x4e, 
    0x65, 0x74, 0x5f, 0x31, 0x2f, 0x63, 0x6f, 0x6e, 0x76, 0x32, 0x64, 0x5f, 
    0x35, 0x5f, 0x31, 0x2f, 0x52, 0x65, 0x6c, 0x75, 0x3b, 0x4d, 0x69, 0x6e, 
    0x69, 0x5f, 0x4d, 0x6f, 0x62, 0x69, 0x6c, 0x65, 0x4e, 0x65, 0x74, 0x5f, 
    0x31, 0x2f, 0x63, 0x6f, 0x6e, 0x76, 0x32, 0x64, 0x5f, 0x35, 0x5f, 0x31, 
    0x2f, 0x42, 0x69, 0x61, 0x73, 0x41, 0x64, 0x64, 0x3b, 0x4d, 0x69, 0x6e, 
    0x69, 0x5f, 0x4d, 0x6f, 0x62, 0x69, 0x6c, 0x65, 0x4e, 0x65, 0x74, 0x5f, 
    0x31, 0x2f, 0x63, 0x6f, 0x6e, 0x76, 0x32, 0x64, 0x5f, 0x35, 0x5f, 0x31, 
    0x2f, 0x63, 0x6f, 0x6e, 0x76, 0x6f, 0x6c, 0x75, 0x74, 0x69, 0x6f, 0x6e, 
    0x3b, 0x31, 0x00, 0x00, 0x04, 0x00, 0x00, 0x00, 0x01, 0x00, 0x00, 0x00, 
    0x0e, 0x00, 0x00, 0x00, 0x0e, 0x00, 0x00, 0x00, 0x08, 0x00, 0x00, 0x00, 
    0x4a, 0xfd, 0xff, 0xff, 0x00, 0x00, 0x00, 0x01, 0x10, 0x00, 0x00, 0x00, 
    0x10, 0x00, 0x00, 0x00, 0x0a, 0x00, 0x00, 0x00, 0x7c, 0x00, 0x00, 0x00, 
    0xcc, 0xfc, 0xff, 0xff, 0x6d, 0x00, 0x00, 0x00, 0x4d, 0x69, 0x6e, 0x69, 
    0x5f, 0x4d, 0x6f, 0x62, 0x69, 0x6c, 0x65, 0x4e, 0x65, 0x74, 0x5f, 0x31, 
    0x2f, 0x63, 0x6f, 0x6e, 0x76, 0x32, 0x64, 0x5f, 0x35, 0x5f, 0x31, 0x2f, 
    0x52, 0x65, 0x6c, 0x75, 0x3b, 0x4d, 0x69, 0x6e, 0x69, 0x5f, 0x4d, 0x6f, 
    0x62, 0x69, 0x6c, 0x65, 0x4e, 0x65, 0x74, 0x5f, 0x31, 0x2f, 0x63, 0x6f, 
    0x6e, 0x76, 0x32, 0x64, 0x5f, 0x35, 0x5f, 0x31, 0x2f, 0x42, 0x69, 0x61, 
    0x73, 0x41, 0x64, 0x64, 0x3b, 0x4d, 0x69, 0x6e, 0x69, 0x5f, 0x4d, 0x6f, 
    0x62, 0x69, 0x6c, 0x65, 0x4e, 0x65, 0x74, 0x5f, 0x31, 0x2f, 0x63, 0x6f, 
    0x6e, 0x76, 0x32, 0x64, 0x5f, 0x35, 0x5f, 0x31, 0x2f, 0x63, 0x6f, 0x6e, 
    0x76, 0x6f, 0x6c, 0x75, 0x74, 0x69, 0x6f, 0x6e, 0x3b, 0x00, 0x00, 0x00, 
    0x01, 0x00, 0x00, 0x00, 0x08, 0x00, 0x00, 0x00, 0xe2, 0xfd, 0xff, 0xff, 
    0x00, 0x00, 0x00, 0x01, 0x10, 0x00, 0x00, 0x00, 0x10, 0x00, 0x00, 0x00, 
    0x09, 0x00, 0x00, 0x00, 0x34, 0x00, 0x00, 0x00, 0x64, 0xfd, 0xff, 0xff, 
    0x27, 0x00, 0x00, 0x00, 0x4d, 0x69, 0x6e, 0x69, 0x5f, 0x4d, 0x6f, 0x62, 
    0x69, 0x6c, 0x65, 0x4e, 0x65, 0x74, 0x5f, 0x31, 0x2f, 0x63, 0x6f, 0x6e, 
    0x76, 0x32, 0x64, 0x5f, 0x35, 0x5f, 0x31, 0x2f, 0x63, 0x6f, 0x6e, 0x76, 
    0x6f, 0x6c, 0x75, 0x74, 0x69, 0x6f, 0x6e, 0x00, 0x04, 0x00, 0x00, 0x00, 
    0x08, 0x00, 0x00, 0x00, 0x03, 0x00, 0x00, 0x00, 0x03, 0x00, 0x00, 0x00, 
    0x01, 0x00, 0x00, 0x00, 0x00, 0x00, 0x16, 0x00, 0x1c, 0x00, 0x18, 0x00, 
    0x17, 0x00, 0x10, 0x00, 0x0c, 0x00, 0x08, 0x00, 0x00, 0x00, 0x00, 0x00, 
    0x00, 0x00, 0x07, 0x00, 0x16, 0x00, 0x00, 0x00, 0x00, 0x00, 0x00, 0x01, 
    0x14, 0x00, 0x00, 0x00, 0x14, 0x00, 0x00, 0x00, 0x08, 0x00, 0x00, 0x00, 
    0x00, 0x00, 0x00, 0x02, 0x54, 0x00, 0x00, 0x00, 0xdc, 0xfd, 0xff, 0xff, 
    0x44, 0x00, 0x00, 0x00, 0x4d, 0x69, 0x6e, 0x69, 0x5f, 0x4d, 0x6f, 0x62, 
    0x69, 0x6c, 0x65, 0x4e, 0x65, 0x74, 0x5f, 0x31, 0x2f, 0x67, 0x6c, 0x6f, 
    0x62, 0x61, 0x6c, 0x5f, 0x61, 0x76, 0x65, 0x72, 0x61, 0x67, 0x65, 0x5f, 
    0x70, 0x6f, 0x6f, 0x6c, 0x69, 0x6e, 0x67, 0x32, 0x64, 0x5f, 0x31, 0x5f, 
    0x31, 0x2f, 0x4d, 0x65, 0x61, 0x6e, 0x2f, 0x72, 0x65, 0x64, 0x75, 0x63, 
    0x74, 0x69, 0x6f, 0x6e, 0x5f, 0x69, 0x6e, 0x64, 0x69, 0x63, 0x65, 0x73, 
    0x00, 0x00, 0x00, 0x00, 0x01, 0x00, 0x00, 0x00, 0x02, 0x00, 0x00, 0x00, 
    0xca, 0xfe, 0xff, 0xff, 0x00, 0x00, 0x00, 0x01, 0x10, 0x00, 0x00, 0x00, 
    0x10, 0x00, 0x00, 0x00, 0x07, 0x00, 0x00, 0x00, 0x1c, 0x00, 0x00, 0x00, 
    0x4c, 0xfe, 0xff, 0xff, 0x0f, 0x00, 0x00, 0x00, 0x61, 0x72, 0x69, 0x74, 
    0x68, 0x2e, 0x63, 0x6f, 0x6e, 0x73, 0x74, 0x61, 0x6e, 0x74, 0x35, 0x00, 
    0x01, 0x00, 0x00, 0x00, 0x0a, 0x00, 0x00, 0x00, 0x02, 0xff, 0xff, 0xff, 
    0x00, 0x00, 0x00, 0x01, 0x10, 0x00, 0x00, 0x00, 0x10, 0x00, 0x00, 0x00, 
    0x06, 0x00, 0x00, 0x00, 0x1c, 0x00, 0x00, 0x00, 0x84, 0xfe, 0xff, 0xff, 
    0x0f, 0x00, 0x00, 0x00, 0x61, 0x72, 0x69, 0x74, 0x68, 0x2e, 0x63, 0x6f, 
    0x6e, 0x73, 0x74, 0x61, 0x6e, 0x74, 0x34, 0x00, 0x02, 0x00, 0x00, 0x00, 
    0x0a, 0x00, 0x00, 0x00, 0x10, 0x00, 0x00, 0x00, 0x3e, 0xff, 0xff, 0xff, 
    0x00, 0x00, 0x00, 0x01, 0x10, 0x00, 0x00, 0x00, 0x10, 0x00, 0x00, 0x00, 
    0x05, 0x00, 0x00, 0x00, 0x1c, 0x00, 0x00, 0x00, 0xc0, 0xfe, 0xff, 0xff, 
    0x0f, 0x00, 0x00, 0x00, 0x61, 0x72, 0x69, 0x74, 0x68, 0x2e, 0x63, 0x6f, 
    0x6e, 0x73, 0x74, 0x61, 0x6e, 0x74, 0x33, 0x00, 0x04, 0x00, 0x00, 0x00, 
    0x01, 0x00, 0x00, 0x00, 0x03, 0x00, 0x00, 0x00, 0x03, 0x00, 0x00, 0x00, 
    0x08, 0x00, 0x00, 0x00, 0x82, 0xff, 0xff, 0xff, 0x00, 0x00, 0x00, 0x01, 
    0x10, 0x00, 0x00, 0x00, 0x10, 0x00, 0x00, 0x00, 0x04, 0x00, 0x00, 0x00, 
    0x1c, 0x00, 0x00, 0x00, 0x04, 0xff, 0xff, 0xff, 0x0f, 0x00, 0x00, 0x00, 
    0x61, 0x72, 0x69, 0x74, 0x68, 0x2e, 0x63, 0x6f, 0x6e, 0x73, 0x74, 0x61, 
    0x6e, 0x74, 0x32, 0x00, 0x04, 0x00, 0x00, 0x00, 0x10, 0x00, 0x00, 0x00, 
    0x01, 0x00, 0x00, 0x00, 0x01, 0x00, 0x00, 0x00, 0x08, 0x00, 0x00, 0x00, 
    0xc6, 0xff, 0xff, 0xff, 0x00, 0x00, 0x00, 0x01, 0x10, 0x00, 0x00, 0x00, 
    0x10, 0x00, 0x00, 0x00, 0x03, 0x00, 0x00, 0x00, 0x1c, 0x00, 0x00, 0x00, 
    0x48, 0xff, 0xff, 0xff, 0x0f, 0x00, 0x00, 0x00, 0x61, 0x72, 0x69, 0x74, 
    0x68, 0x2e, 0x63, 0x6f, 0x6e, 0x73, 0x74, 0x61, 0x6e, 0x74, 0x31, 0x00, 
    0x01, 0x00, 0x00, 0x00, 0x08, 0x00, 0x00, 0x00, 0x00, 0x00, 0x16, 0x00, 
    0x18, 0x00, 0x14, 0x00, 0x00, 0x00, 0x10, 0x00, 0x0c, 0x00, 0x08, 0x00, 
    0x00, 0x00, 0x00, 0x00, 0x00, 0x00, 0x07, 0x00, 0x16, 0x00, 0x00, 0x00, 
    0x00, 0x00, 0x00, 0x01, 0x10, 0x00, 0x00, 0x00, 0x10, 0x00, 0x00, 0x00, 
    0x02, 0x00, 0x00, 0x00, 0x1c, 0x00, 0x00, 0x00, 0x98, 0xff, 0xff, 0xff, 
    0x0e, 0x00, 0x00, 0x00, 0x61, 0x72, 0x69, 0x74, 0x68, 0x2e, 0x63, 0x6f, 
    0x6e, 0x73, 0x74, 0x61, 0x6e, 0x74, 0x00, 0x00, 0x01, 0x00, 0x00, 0x00, 
    0x10, 0x00, 0x00, 0x00, 0x00, 0x00, 0x16, 0x00, 0x1c, 0x00, 0x18, 0x00, 
    0x00, 0x00, 0x14, 0x00, 0x10, 0x00, 0x0c, 0x00, 0x00, 0x00, 0x00, 0x00, 
    0x08, 0x00, 0x07, 0x00, 0x16, 0x00, 0x00, 0x00, 0x00, 0x00, 0x00, 0x01, 
    0x14, 0x00, 0x00, 0x00, 0x28, 0x00, 0x00, 0x00, 0x28, 0x00, 0x00, 0x00, 
    0x01, 0x00, 0x00, 0x00, 0x48, 0x00, 0x00, 0x00, 0x04, 0x00, 0x00, 0x00, 
    0xff, 0xff, 0xff, 0xff, 0x1c, 0x00, 0x00, 0x00, 0x1c, 0x00, 0x00, 0x00, 
    0x01, 0x00, 0x00, 0x00, 0x04, 0x00, 0x04, 0x00, 0x04, 0x00, 0x00, 0x00, 
    0x21, 0x00, 0x00, 0x00, 0x73, 0x65, 0x72, 0x76, 0x69, 0x6e, 0x67, 0x5f, 
    0x64, 0x65, 0x66, 0x61, 0x75, 0x6c, 0x74, 0x5f, 0x6b, 0x65, 0x72, 0x61, 
    0x73, 0x5f, 0x74, 0x65, 0x6e, 0x73, 0x6f, 0x72, 0x5f, 0x31, 0x35, 0x3a, 
    0x30, 0x00, 0x00, 0x00, 0x04, 0x00, 0x00, 0x00, 0x01, 0x00, 0x00, 0x00, 
    0x1c, 0x00, 0x00, 0x00, 0x1c, 0x00, 0x00, 0x00, 0x01, 0x00, 0x00, 0x00, 
    0x05, 0x00, 0x00, 0x00, 0x50, 0x00, 0x00, 0x00, 0x34, 0x00, 0x00, 0x00, 
    0x24, 0x00, 0x00, 0x00, 0x14, 0x00, 0x00, 0x00, 0x04, 0x00, 0x00, 0x00, 
    0xd0, 0xff, 0xff, 0xff, 0x19, 0x00, 0x00, 0x00, 0x00, 0x00, 0x00, 0x19, 
    0xdc, 0xff, 0xff, 0xff, 0x09, 0x00, 0x00, 0x00, 0x00, 0x00, 0x00, 0x09, 
    0xe8, 0xff, 0xff, 0xff, 0x28, 0x00, 0x00, 0x00, 0x00, 0x00, 0x00, 0x28, 
    0xf4, 0xff, 0xff, 0xff, 0x04, 0x00, 0x00, 0x00, 0x00, 0x00, 0x00, 0x04, 
    0x0c, 0x00, 0x0c, 0x00, 0x0b, 0x00, 0x00, 0x00, 0x00, 0x00, 0x04, 0x00, 
    0x0c, 0x00, 0x00, 0x00, 0x03, 0x00, 0x00, 0x00, 0x00, 0x00, 0x00, 0x03, 
};
const unsigned int mobilenet_data_len = 5100;
