#pragma once
alignas(8) const unsigned char mobilenet_data[] = {
    0x1c, 0x00, 0x00, 0x00, 0x54, 0x46, 0x4c, 0x33, 0x14, 0x00, 0x20, 0x00, 
    0x1c, 0x00, 0x18, 0x00, 0x14, 0x00, 0x10, 0x00, 0x0c, 0x00, 0x00, 0x00, 
    0x08, 0x00, 0x04, 0x00, 0x14, 0x00, 0x00, 0x00, 0x1c, 0x00, 0x00, 0x00, 
    0x98, 0x00, 0x00, 0x00, 0xf0, 0x00, 0x00, 0x00, 0xc0, 0x09, 0x00, 0x00, 
    0xd0, 0x09, 0x00, 0x00, 0x5c, 0x13, 0x00, 0x00, 0x03, 0x00, 0x00, 0x00, 
    0x01, 0x00, 0x00, 0x00, 0x10, 0x00, 0x00, 0x00, 0x00, 0x00, 0x0a, 0x00, 
    0x10, 0x00, 0x0c, 0x00, 0x08, 0x00, 0x04, 0x00, 0x0a, 0x00, 0x00, 0x00, 
    0x0c, 0x00, 0x00, 0x00, 0x1c, 0x00, 0x00, 0x00, 0x3c, 0x00, 0x00, 0x00, 
    0x0f, 0x00, 0x00, 0x00, 0x73, 0x65, 0x72, 0x76, 0x69, 0x6e, 0x67, 0x5f, 
    0x64, 0x65, 0x66, 0x61, 0x75, 0x6c, 0x74, 0x00, 0x01, 0x00, 0x00, 0x00, 
    0x04, 0x00, 0x00, 0x00, 0x90, 0xff, 0xff, 0xff, 0x0f, 0x00, 0x00, 0x00, 
    0x04, 0x00, 0x00, 0x00, 0x08, 0x00, 0x00, 0x00, 0x6f, 0x75, 0x74, 0x70, 
    0x75, 0x74, 0x5f, 0x30, 0x00, 0x00, 0x00, 0x00, 0x01, 0x00, 0x00, 0x00, 
    0x04, 0x00, 0x00, 0x00, 0x2e, 0xf6, 0xff, 0xff, 0x04, 0x00, 0x00, 0x00, 
    0x0c, 0x00, 0x00, 0x00, 0x6b, 0x65, 0x72, 0x61, 0x73, 0x5f, 0x74, 0x65, 
    0x6e, 0x73, 0x6f, 0x72, 0x00, 0x00, 0x00, 0x00, 0x02, 0x00, 0x00, 0x00, 
    0x34, 0x00, 0x00, 0x00, 0x04, 0x00, 0x00, 0x00, 0xdc, 0xff, 0xff, 0xff, 
    0x12, 0x00, 0x00, 0x00, 0x04, 0x00, 0x00, 0x00, 0x13, 0x00, 0x00, 0x00, 
    0x43, 0x4f, 0x4e, 0x56, 0x45, 0x52, 0x53, 0x49, 0x4f, 0x4e, 0x5f, 0x4d, 
    0x45, 0x54, 0x41, 0x44, 0x41, 0x54, 0x41, 0x00, 0x08, 0x00, 0x0c, 0x00, 
    0x08, 0x00, 0x04, 0x00, 0x08, 0x00, 0x00, 0x00, 0x11, 0x00, 0x00, 0x00, 
    0x04, 0x00, 0x00, 0x00, 0x13, 0x00, 0x00, 0x00, 0x6d, 0x69, 0x6e, 0x5f, 
    0x72, 0x75, 0x6e, 0x74, 0x69, 0x6d, 0x65, 0x5f, 0x76, 0x65, 0x72, 0x73, 
    0x69, 0x6f, 0x6e, 0x00, 0x13, 0x00, 0x00, 0x00, 0xcc, 0x08, 0x00, 0x00, 
    0xc4, 0x08, 0x00, 0x00, 0x74, 0x08, 0x00, 0x00, 0x44, 0x08, 0x00, 0x00, 
    0x34, 0x06, 0x00, 0x00, 0x04, 0x05, 0x00, 0x00, 0x74, 0x02, 0x00, 0x00, 
    0x3c, 0x02, 0x00, 0x00, 0x24, 0x02, 0x00, 0x00, 0xf4, 0x00, 0x00, 0x00, 
    0xc4, 0x00, 0x00, 0x00, 0xbc, 0x00, 0x00, 0x00, 0xb4, 0x00, 0x00, 0x00, 
    0xac, 0x00, 0x00, 0x00, 0xa4, 0x00, 0x00, 0x00, 0x9c, 0x00, 0x00, 0x00, 
    0x94, 0x00, 0x00, 0x00, 0x74, 0x00, 0x00, 0x00, 0x04, 0x00, 0x00, 0x00, 
    0xf6, 0xf6, 0xff, 0xff, 0x04, 0x00, 0x00, 0x00, 0x60, 0x00, 0x00, 0x00, 
    0x10, 0x00, 0x00, 0x00, 0x00, 0x00, 0x00, 0x00, 0x08, 0x00, 0x0e, 0x00, 
    0x08, 0x00, 0x04, 0x00, 0x08, 0x00, 0x00, 0x00, 0x10, 0x00, 0x00, 0x00, 
    0x24, 0x00, 0x00, 0x00, 0x00, 0x00, 0x06, 0x00, 0x08, 0x00, 0x04, 0x00, 
    0x06, 0x00, 0x00, 0x00, 0x04, 0x00, 0x00, 0x00, 0x00, 0x00, 0x00, 0x00, 
    0x0c, 0x00, 0x18, 0x00, 0x14, 0x00, 0x10, 0x00, 0x0c, 0x00, 0x04, 0x00, 
    0x0c, 0x00, 0x00, 0x00, 0x2a, 0xa6, 0x11, 0x51, 0x39, 0x7f, 0x16, 0x5d, 
    0x02, 0x00, 0x00, 0x00, 0x02, 0x00, 0x00, 0x00, 0x04, 0x00, 0x00, 0x00, 
    0x06, 0x00, 0x00, 0x00, 0x32, 0x2e, 0x31, 0x39, 0x2e, 0x30, 0x00, 0x00, 
    0x62, 0xf7, 0xff, 0xff, 0x04, 0x00, 0x00, 0x00, 0x10, 0x00, 0x00, 0x00, 
    0x31, 0x2e, 0x36, 0x2e, 0x30, 0x00, 0x00, 0x00, 0x00, 0x00, 0x00, 0x00, 
    0x00, 0x00, 0x00, 0x00, 0xa0, 0xee, 0xff, 0xff, 0xa4, 0xee, 0xff, 0xff, 
    0xa8, 0xee, 0xff, 0xff, 0xac, 0xee, 0xff, 0xff, 0xb0, 0xee, 0xff, 0xff, 
    0xb4, 0xee, 0xff, 0xff, 0x96, 0xf7, 0xff, 0xff, 0x04, 0x00, 0x00, 0x00, 
    0x20, 0x00, 0x00, 0x00, 0x14, 0xd0, 0x5d, 0xba, 0x46, 0xb6, 0x13, 0x3f, 
    0x89, 0x8d, 0x8a, 0x3b, 0xf5, 0xbb, 0xd6, 0xba, 0x7e, 0x25, 0x36, 0xbb, 
    0x6c, 0xa9, 0x5f, 0x3a, 0xda, 0xba, 0xc3, 0xba, 0xf1, 0xee, 0xf4, 0xbb, 
    0xc2, 0xf7, 0xff, 0xff, 0x04, 0x00, 0x00, 0x00, 0x20, 0x01, 0x00, 0x00, 
    0x46, 0xc1, 0xc7, 0x3e, 0xbc, 0xa9, 0x15, 0x3e, 0x33, 0x30, 0x70, 0x3e, 
    0xf6, 0xf6, 0x8a, 0x3f, 0xc1, 0xeb, 0x84, 0x3f, 0xa0, 0x5d, 0x81, 0x3f, 
    0x96, 0x0f, 0x96, 0x3f, 0x5c, 0x01, 0x5c, 0x3f, 0x30, 0x2a, 0x83, 0x3f, 
    0x2c, 0x07, 0x89, 0xbf, 0x62, 0xd6, 0xb3, 0xbc, 0xd3, 0xaf, 0x90, 0x3e, 
    0x66, 0xdf, 0x0a, 0xbf, 0x4e, 0x4c, 0x30, 0xbe, 0xce, 0x3c, 0x04, 0x3f, 
    0x01, 0x02, 0x41, 0xbf, 0xed, 0x29, 0x65, 0x3e, 0x9f, 0x23, 0xcd, 0x3e, 
    0x8b, 0x15, 0x1c, 0x3f, 0xd4, 0xf7, 0x34, 0x3f, 0x55, 0x07, 0x26, 0x3f, 
    0x4e, 0x9d, 0x20, 0x3f, 0x97, 0x39, 0xe5, 0x3e, 0xd9, 0xbc, 0x46, 0x3f, 
    0x75, 0xaf, 0xdc, 0x3e, 0xc8, 0xf9, 0x26, 0x3f, 0x22, 0xed, 0x20, 0x3f, 
    0xd5, 0xd3, 0xc3, 0x3e, 0x7a, 0x18, 0x3a, 0x3f, 0xe8, 0x4c, 0x13, 0x3f, 
    0x81, 0xc6, 0x7a, 0x3d, 0x70, 0xa6, 0x07, 0xbe, 0x1b, 0xb4, 0xe9, 0x3e, 
    0xe3, 0xfe, 0x68, 0xbf, 0x6a, 0x60, 0x6b, 0xbf, 0x78, 0xad, 0x8e, 0xbe, 
    0x76, 0x76, 0x39, 0xbe, 0x02, 0x43, 0x23, 0xbf, 0x07, 0xbc, 0x4e, 0xbf, 
    0x66, 0x3b, 0x05, 0x3f, 0x84, 0x09, 0xe5, 0x3e, 0x6b, 0x43, 0x5e, 0x3e, 
    0x02, 0x45, 0x0e, 0x3e, 0x2e, 0x2c, 0x83, 0x3e, 0x3b, 0x1f, 0x04, 0x3f, 
    0x71, 0xc3, 0xd4, 0x3f, 0x51, 0x97, 0xb1, 0x3f, 0xb2, 0x71, 0x94, 0x3f, 
    0x09, 0x94, 0xa0, 0x3f, 0x11, 0xee, 0xa2, 0x3f, 0x1c, 0x3c, 0x90, 0x3f, 
    0x41, 0xe4, 0x74, 0x3f, 0x76, 0x03, 0x92, 0x3f, 0x37, 0xf9, 0xd2, 0x3f, 
    0x8c, 0x79, 0x97, 0xbe, 0x22, 0x59, 0x8b, 0xbf, 0x47, 0xa1, 0x5c, 0xbf, 
    0xf9, 0xd6, 0x64, 0x3e, 0x84, 0xf0, 0x22, 0x3e, 0xcb, 0x1a, 0xa1, 0x3c, 
    0xe0, 0xa9, 0x1d, 0x3f, 0x40, 0xe2, 0x40, 0x3f, 0xf3, 0xe3, 0xa0, 0x3e, 
    0x27, 0x8f, 0x42, 0x3e, 0xbd, 0x42, 0xef, 0x3e, 0x76, 0x6b, 0xfe, 0x3e, 
    0x36, 0x49, 0x9c, 0xbe, 0xf0, 0x56, 0x36, 0x3e, 0x8c, 0x8a, 0xf2, 0x3e, 
    0x9e, 0x85, 0x1b, 0xbf, 0x39, 0x19, 0x35, 0xbf, 0x3d, 0x43, 0x6b, 0xbf, 
    0xee, 0xf8, 0xff, 0xff, 0x04, 0x00, 0x00, 0x00, 0x08, 0x00, 0x00, 0x00, 
    0x01, 0x00, 0x00, 0x00, 0x02, 0x00, 0x00, 0x00, 0x02, 0xf9, 0xff, 0xff, 
    0x04, 0x00, 0x00, 0x00, 0x28, 0x00, 0x00, 0x00, 0x01, 0xcc, 0x5b, 0xbe, 
    0xc5, 0xab, 0xc0, 0x3e, 0x64, 0x67, 0xca, 0xbd, 0x81, 0x2b, 0x35, 0xbe, 
    0xb7, 0xac, 0x2a, 0x3e, 0x3c, 0x6e, 0x9b, 0xbb, 0x1c, 0x54, 0xa1, 0xbd, 
    0xc8, 0x3c, 0x4b, 0x3e, 0x23, 0x19, 0xad, 0xbd, 0xb9, 0xba, 0x30, 0xbd, 
    0x36, 0xf9, 0xff, 0xff, 0x04, 0x00, 0x00, 0x00, 0x80, 0x02, 0x00, 0x00, 
    0xa6, 0x7e, 0x80, 0xbe, 0x81, 0xd7, 0xdc, 0x3e, 0x04, 0xa4, 0x84, 0x3d, 
    0x6b, 0x6d, 0x20, 0xbf, 0x07, 0xda, 0x3f, 0xbe, 0x54, 0x38, 0x76, 0xbe, 
    0xfc, 0x16, 0xc1, 0xbd, 0xf6, 0x29, 0x18, 0xbf, 0x2d, 0xd2, 0x09, 0x3e, 
    0xb9, 0x15, 0xc6, 0x3e, 0x3b, 0xf6, 0x4f, 0x3c, 0x50, 0xb2, 0xb2, 0x3e, 
    0xa2, 0x8d, 0xc2, 0xbe, 0xaf, 0x4c, 0x97, 0x3e, 0x2a, 0x0c, 0x51, 0x3f, 
    0xb1, 0x30, 0x63, 0xbf, 0xcd, 0x41, 0xc2, 0xbf, 0x72, 0x20, 0x77, 0xbf, 
    0xeb, 0x00, 0xb6, 0x3f, 0x18, 0x55, 0x99, 0x3e, 0xe7, 0x13, 0xba, 0xbf, 
    0x3c, 0xab, 0xd3, 0xbf, 0xab, 0x2d, 0x25, 0xbf, 0xd3, 0xa1, 0x9b, 0x3f, 
    0x2d, 0x13, 0x8c, 0xbf, 0xa5, 0x28, 0x94, 0xbf, 0xca, 0x79, 0x69, 0xbf, 
    0x77, 0x72, 0x12, 0xbf, 0x8d, 0xaf, 0x04, 0x3f, 0xf6, 0x81, 0x36, 0xbe, 
    0x97, 0x4a, 0x37, 0xbe, 0x85, 0x65, 0x81, 0xbf, 0x76, 0xf2, 0xfe, 0x3c, 
    0xf7, 0xa7, 0xa7, 0x3e, 0x91, 0x66, 0x42, 0xbf, 0xef, 0x4b, 0x95, 0xbe, 
    0x20, 0x29, 0xb7, 0x3e, 0x32, 0xf6, 0xe1, 0xbd, 0x9c, 0x16, 0xdd, 0x3e, 
    0x75, 0xcd, 0x0c, 0xbd, 0x3a, 0x6e, 0x13, 0x3f, 0xd7, 0xad, 0xe5, 0xbd, 
    0xa4, 0xc9, 0x0b, 0xbe, 0xd2, 0xb4, 0xf6, 0x3d, 0x80, 0x70, 0xdf, 0xbe, 
    0x1e, 0xbc, 0x31, 0x3f, 0xe3, 0x63, 0xa2, 0xbd, 0x6e, 0xf4, 0x6b, 0xbe, 
    0x9b, 0x0a, 0xfc, 0x3e, 0xa0, 0x43, 0x6f, 0xbe, 0x3d, 0xe4, 0xfc, 0xbe, 
    0x5c, 0xf6, 0x5d, 0x3e, 0x9a, 0x40, 0x18, 0x3f, 0xf1, 0x08, 0xec, 0x3e, 
    0x97, 0x8a, 0xd6, 0x3d, 0x26, 0xee, 0x05, 0xbf, 0x6d, 0xfa, 0x02, 0x3f, 
    0x3f, 0xe3, 0x6c, 0x3e, 0x69, 0xed, 0x18, 0x3f, 0xbe, 0x45, 0x07, 0x3f, 
    0xc2, 0xda, 0x3c, 0x3e, 0x57, 0xa1, 0x6d, 0x3e, 0xce, 0xa0, 0xa8, 0xbe, 
    0xef, 0xff, 0xa3, 0x3d, 0x7b, 0x0f, 0x8d, 0xbe, 0x85, 0x99, 0xd9, 0x3e, 
    0x21, 0x99, 0xb3, 0x3d, 0x9e, 0x21, 0xf6, 0x3e, 0x1a, 0x26, 0x16, 0xbf, 
    0x66, 0xad, 0xb5, 0xbe, 0xfc, 0x48, 0xb9, 0xbe, 0x92, 0xb7, 0xd9, 0x3e, 
    0x60, 0x12, 0x20, 0xbe, 0x8e, 0x81, 0x68, 0xbf, 0xdc, 0xac, 0x12, 0xbe, 
    0xcd, 0x21, 0xbf, 0xbf, 0xfd, 0xef, 0x5d, 0xbf, 0x06, 0x08, 0x77, 0x3d, 
    0xe9, 0x3e, 0x49, 0x3e, 0xeb, 0x88, 0x54, 0xbf, 0x25, 0x9b, 0xda, 0x3e, 
    0x13, 0xf9, 0xd4, 0xbe, 0xfd, 0xf3, 0x20, 0xbf, 0x95, 0x97, 0xdf, 0xbd, 
    0xd1, 0xf6, 0x48, 0x3f, 0x36, 0x02, 0x00, 0x3f, 0x20, 0x98, 0x53, 0x3f, 
    0xd9, 0xb7, 0x22, 0xbd, 0x5e, 0x52, 0x32, 0x3c, 0x2b, 0x83, 0xa4, 0x3e, 
    0x8b, 0x04, 0x41, 0x3f, 0xef, 0x42, 0x51, 0x3f, 0x3a, 0xd3, 0x39, 0xbe, 
    0x8d, 0x03, 0x27, 0x3e, 0xdc, 0x86, 0x81, 0xbf, 0x49, 0x77, 0x67, 0x3f, 
    0x56, 0xd8, 0x6d, 0x3e, 0xb7, 0x41, 0x35, 0x3d, 0x49, 0x28, 0x7e, 0x3e, 
    0x00, 0x2b, 0xa2, 0xbe, 0x41, 0x59, 0xda, 0x3e, 0xaf, 0xfa, 0xb0, 0xbe, 
    0x0a, 0x50, 0x63, 0xbf, 0x47, 0xf3, 0x6c, 0x3e, 0x92, 0x1a, 0x05, 0xbf, 
    0x07, 0x43, 0xbb, 0xbe, 0xf6, 0x8c, 0xd8, 0x3e, 0x25, 0xa6, 0x93, 0xbe, 
    0x77, 0xe3, 0xe4, 0xbe, 0x2e, 0xd8, 0x2c, 0xbe, 0x4e, 0xa0, 0xd5, 0x3e, 
    0x8a, 0x7c, 0xa8, 0x3e, 0xc0, 0xa7, 0x81, 0xbf, 0x2e, 0x42, 0x76, 0xbe, 
    0x45, 0xd3, 0x10, 0x3f, 0x91, 0x41, 0x04, 0xbf, 0x2d, 0x8c, 0x12, 0xbf, 
    0xda, 0x4d, 0x14, 0xbd, 0x54, 0xf7, 0x9b, 0x3f, 0x4b, 0xee, 0xb9, 0x3e, 
    0xed, 0xc2, 0xcb, 0x3e, 0x8a, 0xf3, 0x1e, 0x3f, 0xa7, 0xfb, 0x8f, 0xbf, 
    0x03, 0x2d, 0xbe, 0x3f, 0x7d, 0x8a, 0xce, 0x3f, 0x0d, 0xca, 0x0e, 0x3f, 
    0xfe, 0x9a, 0xda, 0xbe, 0x82, 0x32, 0xd7, 0xbf, 0xfc, 0x8b, 0xb2, 0x3d, 
    0xaf, 0x49, 0x17, 0x3f, 0x0d, 0xfc, 0x6c, 0xbc, 0x9a, 0xb2, 0x0d, 0x3f, 
    0x93, 0xf0, 0x88, 0x3e, 0x28, 0x86, 0xdb, 0x3e, 0x07, 0xe8, 0xc2, 0xbf, 
    0x6c, 0x79, 0x0b, 0xbf, 0xd8, 0xe2, 0x2e, 0x3e, 0x21, 0x7d, 0x1b, 0x3e, 
    0x5f, 0x3a, 0x12, 0x3f, 0x8f, 0x8a, 0x31, 0xbf, 0x75, 0x17, 0x2d, 0x3d, 
    0x85, 0x0c, 0xb0, 0xbf, 0x1d, 0x70, 0x3f, 0x3e, 0xe5, 0x70, 0x8d, 0x3f, 
    0xd1, 0xc9, 0x77, 0x3e, 0xcd, 0x5e, 0xe8, 0x3d, 0x4c, 0x0f, 0x7e, 0x3e, 
    0x79, 0x7d, 0x4f, 0x3d, 0x8f, 0x6b, 0xbf, 0xbe, 0x5e, 0x1b, 0x05, 0x3e, 
    0x08, 0x4a, 0x40, 0xbf, 0xdf, 0xaf, 0xd0, 0x3e, 0xfe, 0x12, 0x00, 0xbf, 
    0x38, 0x8d, 0xf9, 0x3e, 0x7b, 0x23, 0x60, 0x3d, 0xe8, 0xed, 0x8a, 0xbe, 
    0x37, 0xf0, 0x0e, 0x3f, 0xbe, 0x0f, 0x95, 0x3d, 0xe1, 0x58, 0x82, 0xbe, 
    0xaf, 0x95, 0x38, 0x3e, 0xc2, 0xfb, 0xff, 0xff, 0x04, 0x00, 0x00, 0x00, 
    0x20, 0x01, 0x00, 0x00, 0x2b, 0x5b, 0x6e, 0x3e, 0x30, 0x18, 0x03, 0x3f, 
    0x45, 0xd8, 0x74, 0x3f, 0x43, 0x19, 0x28, 0x3f, 0x1a, 0x79, 0x21, 0x3f, 
    0x0f, 0x52, 0x9b, 0xbf, 0x73, 0x17, 0x51, 0x3f, 0xbc, 0x46, 0x43, 0x3f, 
    0x37, 0x35, 0xd4, 0x3e, 0x5b, 0x60, 0xd5, 0x3e, 0x32, 0xc4, 0x00, 0x3f, 
    0x4e, 0xdc, 0x5a, 0x3f, 0x2b, 0x6a, 0x45, 0x3f, 0xfe, 0xee, 0x9d, 0xbf, 
    0x0b, 0xdc, 0x84, 0x3f, 0xa9, 0xf6, 0x66, 0x3f, 0x4d, 0x6e, 0xcf, 0x3e, 
    0xf1, 0xa6, 0x44, 0x3f, 0x96, 0x19, 0xfa, 0x3e, 0xd6, 0x1d, 0x4c, 0x3f, 
    0x95, 0xd8, 0xf2, 0x3e, 0x33, 0x01, 0x97, 0xbf, 0xbc, 0xb7, 0x90, 0x3f, 
    0xf8, 0x4e, 0x6e, 0x3f, 0xf6, 0xbc, 0xf7, 0xbd, 0x44, 0x30, 0x4f, 0x3f, 
    0x5f, 0x4e, 0x1c, 0x3f, 0xd9, 0x4f, 0x1f, 0x3f, 0x7c, 0x1d, 0x2d, 0x3f, 
    0xbb, 0x4d, 0x71, 0x3e, 0xc4, 0x00, 0x70, 0x3f, 0x0a, 0xe5, 0x79, 0x3f, 
    0x91, 0xf7, 0xe6, 0x3e, 0xaf, 0xdf, 0x39, 0x3f, 0x3a, 0xab, 0xf3, 0x3e, 
    0x61, 0x26, 0x2a, 0x3f, 0x4c, 0x37, 0x3e, 0x3f, 0x27, 0x1d, 0x9a, 0x3e, 
    0x73, 0x9b, 0x77, 0x3f, 0x97, 0xf5, 0x53, 0x3f, 0x04, 0x81, 0x1c, 0x3f, 
    0xbd, 0x42, 0x0d, 0x3f, 0x25, 0x4c, 0xd9, 0x3e, 0x64, 0x6a, 0x81, 0x3f, 
    0xd0, 0xc0, 0x39, 0x3f, 0x79, 0x44, 0xd5, 0x3b, 0x37, 0x75, 0x83, 0x3f, 
    0x19, 0xac, 0x84, 0x3f, 0xc3, 0xa6, 0x9b, 0xbf, 0x9b, 0x0d, 0x0b, 0x3f, 
    0x89, 0x17, 0xc7, 0x3e, 0x87, 0xbe, 0x39, 0x3f, 0xe1, 0x8d, 0x07, 0x3f, 
    0x22, 0xca, 0xbb, 0x3e, 0x21, 0x35, 0x92, 0x3f, 0xf1, 0xf9, 0x85, 0x3f, 
    0xad, 0x06, 0x0b, 0xbf, 0x3a, 0x0e, 0x54, 0x3f, 0x45, 0x85, 0x21, 0x3f, 
    0xc2, 0x61, 0x15, 0x3f, 0x3d, 0xc6, 0x75, 0x3f, 0xd4, 0x3e, 0x19, 0x3f, 
    0x58, 0x23, 0x9b, 0x3f, 0x59, 0x11, 0x69, 0x3f, 0x6f, 0x03, 0x85, 0xbf, 
    0xe7, 0x91, 0x14, 0x3f, 0x36, 0x85, 0x82, 0x3e, 0xee, 0x64, 0x53, 0x3f, 
    0x39, 0xd7, 0x94, 0x3f, 0xfc, 0xf7, 0x28, 0x3f, 0x3d, 0x43, 0xb7, 0x3f, 
    0x06, 0xaa, 0x53, 0x3f, 0xee, 0xfc, 0xff, 0xff, 0x04, 0x00, 0x00, 0x00, 
    0x00, 0x02, 0x00, 0x00, 0xb4, 0xd4, 0x1a, 0x3e, 0x00, 0xd7, 0x4e, 0xbe, 
    0x5a, 0x48, 0x87, 0xbd, 0x74, 0x14, 0x91, 0x3f, 0xdb, 0x68, 0x22, 0x3f, 
    0x63, 0xf8, 0xb8, 0xbe, 0x93, 0xef, 0x5e, 0x3f, 0xa7, 0xfd, 0x9f, 0x3f, 
    0xed, 0x25, 0xbd, 0xbb, 0x8e, 0x71, 0xd8, 0xbc, 0x6f, 0xa3, 0x3f, 0x3f, 
    0x41, 0x4f, 0x19, 0x3f, 0xee, 0xc4, 0x37, 0x3f, 0xb7, 0x3e, 0x71, 0x3e, 
    0xff, 0xb7, 0x7d, 0x3f, 0x21, 0x6c, 0x08, 0x3f, 0xa4, 0x8b, 0x8d, 0xbf, 
    0x2c, 0x02, 0x73, 0x3f, 0x95, 0x96, 0x65, 0x3f, 0x04, 0x74, 0xcd, 0xbe, 
    0x48, 0x3e, 0x9d, 0xbe, 0x05, 0xc1, 0xda, 0xbe, 0x35, 0x81, 0x33, 0xbf, 
    0xfb, 0x50, 0xc3, 0xbf, 0xb0, 0x06, 0x79, 0xbd, 0x37, 0x24, 0xe1, 0x3e, 
    0x48, 0x9d, 0x91, 0x3e, 0x3d, 0xa1, 0xac, 0x3e, 0x94, 0x5b, 0x58, 0x3f, 
    0xda, 0xe9, 0x8d, 0xbf, 0x1f, 0x48, 0x7c, 0x3f, 0x38, 0x26, 0xb8, 0x3e, 
    0x6b, 0x1b, 0xe0, 0x3e, 0x82, 0x2a, 0x03, 0xbf, 0xf8, 0xb6, 0xa5, 0xbd, 
    0x08, 0xef, 0x91, 0x3f, 0x5c, 0x37, 0xc9, 0x3e, 0x97, 0xdd, 0x9a, 0x3d, 
    0x03, 0x57, 0x3c, 0x3f, 0x2a, 0xb1, 0x81, 0x3f, 0xb1, 0xb2, 0x95, 0xbe, 
    0x12, 0x94, 0x61, 0xbe, 0xd3, 0xf0, 0x9c, 0xbe, 0xf8, 0x24, 0x77, 0x3f, 
    0x7d, 0xa0, 0x20, 0x3f, 0xc4, 0x3e, 0xdd, 0x3d, 0x27, 0xd7, 0x91, 0x3f, 
    0x90, 0x0e, 0x8f, 0x3f, 0x75, 0x5b, 0xb1, 0x3f, 0xd1, 0x1f, 0xc4, 0xbd, 
    0xc7, 0x2d, 0xe9, 0xbe, 0xb1, 0xbe, 0xfd, 0x3c, 0x95, 0x98, 0xfc, 0x3e, 
    0x07, 0x5f, 0xba, 0x3f, 0x5b, 0xba, 0xde, 0x3e, 0xcd, 0xff, 0x55, 0x3f, 
    0x5b, 0x3d, 0xa4, 0x3e, 0x68, 0x07, 0x8c, 0x3f, 0x09, 0x61, 0x65, 0x3e, 
    0x3b, 0xdb, 0x4d, 0xbf, 0x54, 0x87, 0x92, 0xbe, 0xd3, 0xb9, 0xee, 0x3e, 
    0x20, 0x09, 0x80, 0xbf, 0xdb, 0x62, 0xe0, 0xbe, 0xde, 0xee, 0xa4, 0x3e, 
    0x01, 0xff, 0x11, 0xbb, 0x82, 0xb2, 0x0e, 0xbf, 0x17, 0xf5, 0x5c, 0x3f, 
    0xe2, 0xb4, 0xfd, 0xbc, 0xb9, 0xb4, 0x3f, 0x3f, 0x3e, 0x6f, 0x64, 0x3f, 
    0x58, 0x7b, 0xe5, 0x3e, 0x93, 0xd0, 0x6f, 0xbe, 0x1e, 0x96, 0x20, 0xbf, 
    0x73, 0x94, 0x0f, 0xbf, 0xf9, 0xd9, 0x6c, 0x3f, 0x60, 0x5d, 0xa4, 0x3e, 
    0x38, 0xf7, 0x42, 0x3f, 0x16, 0x2c, 0x82, 0x3f, 0x8f, 0xda, 0x3a, 0x3f, 
    0x44, 0x7c, 0x31, 0x3d, 0x76, 0x25, 0x85, 0xbd, 0x1e, 0xeb, 0xca, 0xbc, 
    0x04, 0xdc, 0x20, 0x3f, 0x36, 0x07, 0x0a, 0x3f, 0x97, 0xc3, 0x2f, 0xbf, 
    0x00, 0x14, 0x4a, 0x3f, 0xff, 0x68, 0x57, 0x3f, 0x7c, 0xba, 0xf6, 0x3e, 
    0xac, 0x5e, 0x0c, 0xbf, 0xcb, 0x81, 0x1b, 0xbf, 0x45, 0x0f, 0x3a, 0x3e, 
    0x56, 0xd0, 0xc5, 0x3e, 0xfb, 0xd8, 0xad, 0x3f, 0x1c, 0xc7, 0x14, 0x3f, 
    0xbb, 0x43, 0x66, 0x3f, 0x4b, 0xc9, 0xb1, 0x3d, 0x68, 0x91, 0x21, 0xbf, 
    0xe6, 0x4e, 0x88, 0xbe, 0x46, 0xc6, 0x2e, 0x3e, 0x47, 0x81, 0x03, 0x3f, 
    0xf6, 0x85, 0x27, 0x3f, 0xc2, 0x16, 0x86, 0x3e, 0x54, 0x17, 0xa0, 0x3e, 
    0x93, 0xa4, 0x90, 0x3f, 0x50, 0xb0, 0xa2, 0x3c, 0x6b, 0x14, 0xd0, 0xbd, 
    0xdb, 0x2c, 0x8c, 0xbe, 0xf8, 0x09, 0x48, 0xbd, 0xc6, 0xdf, 0x9f, 0x3f, 
    0xdf, 0xaa, 0x90, 0x3e, 0x63, 0x33, 0xf9, 0x3e, 0x9b, 0x22, 0x88, 0xbd, 
    0x2e, 0xc3, 0x1d, 0x3d, 0xa9, 0x7a, 0x85, 0x3f, 0xaf, 0x23, 0xc6, 0x3e, 
    0xa4, 0xdd, 0x54, 0x3e, 0x30, 0x20, 0x9d, 0x3d, 0x82, 0xd5, 0xee, 0x3d, 
    0xbe, 0x27, 0x00, 0x3e, 0xf6, 0x5f, 0xc8, 0xbe, 0x34, 0x85, 0xfb, 0xbe, 
    0x20, 0x01, 0x49, 0x3e, 0x05, 0x58, 0x07, 0x3f, 0x7e, 0x62, 0x16, 0x3f, 
    0xf0, 0xf4, 0x2b, 0xbf, 0x9a, 0x2a, 0x85, 0x3f, 0x6a, 0xe5, 0x72, 0x3f, 
    0xfa, 0xfe, 0xff, 0xff, 0x04, 0x00, 0x00, 0x00, 0x20, 0x00, 0x00, 0x00, 
    0x76, 0xb7, 0x9a, 0x3d, 0xaf, 0xc0, 0xd6, 0x3e, 0xce, 0x97, 0x02, 0xbc, 
    0x73, 0x99, 0xa3, 0xba, 0x18, 0x8f, 0x1e, 0xbb, 0xb0, 0x3c, 0x16, 0x3b, 
    0xd6, 0x8f, 0x48, 0xba, 0x32, 0xe4, 0x65, 0xba, 0x26, 0xff, 0xff, 0xff, 
    0x04, 0x00, 0x00, 0x00, 0x40, 0x00, 0x00, 0x00, 0x19, 0x5d, 0xdf, 0xbd, 
    0x51, 0xbd, 0xda, 0x3d, 0x94, 0x55, 0x9f, 0x3e, 0x18, 0xee, 0x3a, 0x3d, 
    0x06, 0xa1, 0x10, 0x3d, 0x38, 0x76, 0xae, 0xbd, 0x33, 0xd5, 0x34, 0x3e, 
    0x2d, 0xd2, 0xd3, 0x3e, 0xc1, 0xc6, 0x97, 0x3b, 0x55, 0x9b, 0xa6, 0xbe, 
    0x8c, 0xe0, 0x46, 0xbe, 0xa1, 0x47, 0xd3, 0xbd, 0xfd, 0xae, 0x96, 0xbe, 
    0x71, 0x20, 0x81, 0x3d, 0x50, 0xda, 0x14, 0xbe, 0x42, 0x94, 0x37, 0x3d, 
    0x94, 0xf6, 0xff, 0xff, 0x98, 0xf6, 0xff, 0xff, 0x0f, 0x00, 0x00, 0x00, 
    0x4d, 0x4c, 0x49, 0x52, 0x20, 0x43, 0x6f, 0x6e, 0x76, 0x65, 0x72, 0x74, 
    0x65, 0x64, 0x2e, 0x00, 0x01, 0x00, 0x00, 0x00, 0x14, 0x00, 0x00, 0x00, 
    0x00, 0x00, 0x0e, 0x00, 0x18, 0x00, 0x14, 0x00, 0x10, 0x00, 0x0c, 0x00, 
    0x08, 0x00, 0x04, 0x00, 0x0e, 0x00, 0x00, 0x00, 0x14, 0x00, 0x00, 0x00, 
    0x1c, 0x00, 0x00, 0x00, 0xe8, 0x01, 0x00, 0x00, 0xec, 0x01, 0x00, 0x00, 
    0xf0, 0x01, 0x00, 0x00, 0x04, 0x00, 0x00, 0x00, 0x6d, 0x61, 0x69, 0x6e, 
    0x00, 0x00, 0x00, 0x00, 0x06, 0x00, 0x00, 0x00, 0x84, 0x01, 0x00, 0x00, 
    0x1c, 0x01, 0x00, 0x00, 0xbc, 0x00, 0x00, 0x00, 0x88, 0x00, 0x00, 0x00, 
    0x40, 0x00, 0x00, 0x00, 0x04, 0x00, 0x00, 0x00, 0x06, 0xff, 0xff, 0xff, 
    0x1c, 0x00, 0x00, 0x00, 0x00, 0x00, 0x00, 0x09, 0x1c, 0x00, 0x00, 0x00, 
    0x20, 0x00, 0x00, 0x00, 0x04, 0x00, 0x00, 0x00, 0x00, 0x00, 0x06, 0x00, 
    0x08, 0x00, 0x04, 0x00, 0x06, 0x00, 0x00, 0x00, 0x00, 0x00, 0x80, 0x3f, 
    0x01, 0x00, 0x00, 0x00, 0x0f, 0x00, 0x00, 0x00, 0x01, 0x00, 0x00, 0x00, 
    0x0e, 0x00, 0x00, 0x00, 0xca, 0xff, 0xff, 0xff, 0x14, 0x00, 0x00, 0x00, 
    0x00, 0x00, 0x00, 0x08, 0x10, 0x00, 0x00, 0x00, 0x14, 0x00, 0x00, 0x00, 
    0x03, 0x00, 0x00, 0x00, 0x58, 0xf7, 0xff, 0xff, 0x01, 0x00, 0x00, 0x00, 
    0x0e, 0x00, 0x00, 0x00, 0x03, 0x00, 0x00, 0x00, 0x0d, 0x00, 0x00, 0x00, 
    0x05, 0x00, 0x00, 0x00, 0x06, 0x00, 0x00, 0x00, 0x00, 0x00, 0x0e, 0x00, 
    0x18, 0x00, 0x14, 0x00, 0x10, 0x00, 0x0c, 0x00, 0x0b, 0x00, 0x04, 0x00, 
    0x0e, 0x00, 0x00, 0x00, 0x14, 0x00, 0x00, 0x00, 0x00, 0x00, 0x00, 0x1b, 
    0x10, 0x00, 0x00, 0x00, 0x14, 0x00, 0x00, 0x00, 0x02, 0x00, 0x00, 0x00, 
    0x9c, 0xf7, 0xff, 0xff, 0x01, 0x00, 0x00, 0x00, 0x0d, 0x00, 0x00, 0x00, 
    0x02, 0x00, 0x00, 0x00, 0x0c, 0x00, 0x00, 0x00, 0x07, 0x00, 0x00, 0x00, 
    0x4e, 0xff, 0xff, 0xff, 0x1c, 0x00, 0x00, 0x00, 0x00, 0x00, 0x00, 0x01, 
    0x28, 0x00, 0x00, 0x00, 0x2c, 0x00, 0x00, 0x00, 0x0c, 0x00, 0x14, 0x00, 
    0x13, 0x00, 0x0c, 0x00, 0x08, 0x00, 0x07, 0x00, 0x0c, 0x00, 0x00, 0x00, 
    0x00, 0x00, 0x00, 0x01, 0x01, 0x00, 0x00, 0x00, 0x01, 0x00, 0x00, 0x00, 
    0x00, 0x00, 0x00, 0x01, 0x01, 0x00, 0x00, 0x00, 0x0c, 0x00, 0x00, 0x00, 
    0x03, 0x00, 0x00, 0x00, 0x0b, 0x00, 0x00, 0x00, 0x03, 0x00, 0x00, 0x00, 
    0x01, 0x00, 0x00, 0x00, 0x00, 0x00, 0x0e, 0x00, 0x1a, 0x00, 0x14, 0x00, 
    0x10, 0x00, 0x0c, 0x00, 0x0b, 0x00, 0x04, 0x00, 0x0e, 0x00, 0x00, 0x00, 
    0x24, 0x00, 0x00, 0x00, 0x00, 0x00, 0x00, 0x02, 0x30, 0x00, 0x00, 0x00, 
    0x34, 0x00, 0x00, 0x00, 0x01, 0x00, 0x00, 0x00, 0x00, 0x00, 0x0e, 0x00, 
    0x14, 0x00, 0x00, 0x00, 0x10, 0x00, 0x0c, 0x00, 0x08, 0x00, 0x07, 0x00, 
    0x0e, 0x00, 0x00, 0x00, 0x00, 0x00, 0x00, 0x01, 0x01, 0x00, 0x00, 0x00, 
    0x01, 0x00, 0x00, 0x00, 0x01, 0x00, 0x00, 0x00, 0x01, 0x00, 0x00, 0x00, 
    0x0b, 0x00, 0x00, 0x00, 0x03, 0x00, 0x00, 0x00, 0x0a, 0x00, 0x00, 0x00, 
    0x04, 0x00, 0x00, 0x00, 0x02, 0x00, 0x00, 0x00, 0x00, 0x00, 0x0e, 0x00, 
    0x14, 0x00, 0x00, 0x00, 0x10, 0x00, 0x0c, 0x00, 0x0b, 0x00, 0x04, 0x00, 
    0x0e, 0x00, 0x00, 0x00, 0x1c, 0x00, 0x00, 0x00, 0x00, 0x00, 0x00, 0x01, 
    0x24, 0x00, 0x00, 0x00, 0x28, 0x00, 0x00, 0x00, 0x0c, 0x00, 0x10, 0x00, 
    0x00, 0x00, 0x0c, 0x00, 0x08, 0x00, 0x07, 0x00, 0x0c, 0x00, 0x00, 0x00, 
    0x00, 0x00, 0x00, 0x01, 0x02, 0x00, 0x00, 0x00, 0x02, 0x00, 0x00, 0x00, 
    0x01, 0x00, 0x00, 0x00, 0x0a, 0x00, 0x00, 0x00, 0x03, 0x00, 0x00, 0x00, 
    0x00, 0x00, 0x00, 0x00, 0x08, 0x00, 0x00, 0x00, 0x09, 0x00, 0x00, 0x00, 
    0x01, 0x00, 0x00, 0x00, 0x0f, 0x00, 0x00, 0x00, 0x01, 0x00, 0x00, 0x00, 
    0x00, 0x00, 0x00, 0x00, 0x10, 0x00, 0x00, 0x00, 0x00, 0x07, 0x00, 0x00, 
    0xac, 0x06, 0x00, 0x00, 0x58, 0x06, 0x00, 0x00, 0x10, 0x06, 0x00, 0x00, 
    0xc8, 0x05, 0x00, 0x00, 0x88, 0x05, 0x00, 0x00, 0x4c, 0x05, 0x00, 0x00, 
    0xd8, 0x04, 0x00, 0x00, 0x60, 0x04, 0x00, 0x00, 0xcc, 0x03, 0x00, 0x00, 
    0x10, 0x03, 0x00, 0x00, 0x3c, 0x02, 0x00, 0x00, 0x58, 0x01, 0x00, 0x00, 
    0xe4, 0x00, 0x00, 0x00, 0x60, 0x00, 0x00, 0x00, 0x04, 0x00, 0x00, 0x00, 
    0x56, 0xf9, 0xff, 0xff, 0x00, 0x00, 0x00, 0x01, 0x14, 0x00, 0x00, 0x00, 
    0x1c, 0x00, 0x00, 0x00, 0x1c, 0x00, 0x00, 0x00, 0x10, 0x00, 0x00, 0x00, 
    0x34, 0x00, 0x00, 0x00, 0x02, 0x00, 0x00, 0x00, 0xff, 0xff, 0xff, 0xff, 
    0x0a, 0x00, 0x00, 0x00, 0x38, 0xf9, 0xff, 0xff, 0x1b, 0x00, 0x00, 0x00, 
    0x53, 0x74, 0x61, 0x74, 0x65, 0x66, 0x75, 0x6c, 0x50, 0x61, 0x72, 0x74, 
    0x69, 0x74, 0x69, 0x6f, 0x6e, 0x65, 0x64, 0x43, 0x61, 0x6c, 0x6c, 0x5f, 
    0x31, 0x3a, 0x30, 0x00, 0x02, 0x00, 0x00, 0x00, 0x01, 0x00, 0x00, 0x00, 
    0x0a, 0x00, 0x00, 0x00, 0xae, 0xf9, 0xff, 0xff, 0x00, 0x00, 0x00, 0x01, 
    0x14, 0x00, 0x00, 0x00, 0x1c, 0x00, 0x00, 0x00, 0x1c, 0x00, 0x00, 0x00, 
    0x0f, 0x00, 0x00, 0x00, 0x5c, 0x00, 0x00, 0x00, 0x02, 0x00, 0x00, 0x00, 
    0xff, 0xff, 0xff, 0xff, 0x0a, 0x00, 0x00, 0x00, 0x90, 0xf9, 0xff, 0xff, 
    0x40, 0x00, 0x00, 0x00, 0x4d, 0x69, 0x6e, 0x69, 0x5f, 0x4d, 0x6f, 0x62, 
    0x69, 0x6c, 0x65, 0x4e, 0x65, 0x74, 0x5f, 0x31, 0x2f, 0x64, 0x65, 0x6e, 
    0x73, 0x65, 0x5f, 0x31, 0x2f, 0x4d, 0x61, 0x74, 0x4d, 0x75, 0x6c, 0x3b, 
    0x4d, 0x69, 0x6e, 0x69, 0x5f, 0x4d, 0x6f, 0x62, 0x69, 0x6c, 0x65, 0x4e, 
    0x65, 0x74, 0x5f, 0x31, 0x2f, 0x64, 0x65, 0x6e, 0x73, 0x65, 0x5f, 0x31, 
    0x2f, 0x42, 0x69, 0x61, 0x73, 0x41, 0x64, 0x64, 0x00, 0x00, 0x00, 0x00, 
    0x02, 0x00, 0x00, 0x00, 0x01, 0x00, 0x00, 0x00, 0x0a, 0x00, 0x00, 0x00, 
    0x2e, 0xfa, 0xff, 0xff, 0x00, 0x00, 0x00, 0x01, 0x14, 0x00, 0x00, 0x00, 
    0x1c, 0x00, 0x00, 0x00, 0x1c, 0x00, 0x00, 0x00, 0x0e, 0x00, 0x00, 0x00, 
    0x4c, 0x00, 0x00, 0x00, 0x02, 0x00, 0x00, 0x00, 0xff, 0xff, 0xff, 0xff, 
    0x10, 0x00, 0x00, 0x00, 0x10, 0xfa, 0xff, 0xff, 0x30, 0x00, 0x00, 0x00, 
    0x4d, 0x69, 0x6e, 0x69, 0x5f, 0x4d, 0x6f, 0x62, 0x69, 0x6c, 0x65, 0x4e, 
    0x65, 0x74, 0x5f, 0x31, 0x2f, 0x67, 0x6c, 0x6f, 0x62, 0x61, 0x6c, 0x5f, 
    0x61, 0x76, 0x65, 0x72, 0x61, 0x67, 0x65, 0x5f, 0x70, 0x6f, 0x6f, 0x6c, 
    0x69, 0x6e, 0x67, 0x32, 0x64, 0x5f, 0x31, 0x2f, 0x4d, 0x65, 0x61, 0x6e, 
    0x00, 0x00, 0x00, 0x00, 0x02, 0x00, 0x00, 0x00, 0x01, 0x00, 0x00, 0x00, 
    0x10, 0x00, 0x00, 0x00, 0x9e, 0xfa, 0xff, 0xff, 0x00, 0x00, 0x00, 0x01, 
    0x14, 0x00, 0x00, 0x00, 0x24, 0x00, 0x00, 0x00, 0x24, 0x00, 0x00, 0x00, 
    0x0d, 0x00, 0x00, 0x00, 0xb4, 0x00, 0x00, 0x00, 0x04, 0x00, 0x00, 0x00, 
    0xff, 0xff, 0xff, 0xff, 0x0e, 0x00, 0x00, 0x00, 0x0e, 0x00, 0x00, 0x00, 
    0x10, 0x00, 0x00, 0x00, 0x88, 0xfa, 0xff, 0xff, 0x90, 0x00, 0x00, 0x00, 
    0x4d, 0x69, 0x6e, 0x69, 0x5f, 0x4d, 0x6f, 0x62, 0x69, 0x6c, 0x65, 0x4e, 
    0x65, 0x74, 0x5f, 0x31, 0x2f, 0x63, 0x6f, 0x6e, 0x76, 0x32, 0x64, 0x5f, 
    0x31, 0x5f, 0x32, 0x2f, 0x52, 0x65, 0x6c, 0x75, 0x3b, 0x4d, 0x69, 0x6e, 
    0x69, 0x5f, 0x4d, 0x6f, 0x62, 0x69, 0x6c, 0x65, 0x4e, 0x65, 0x74, 0x5f, 
    0x31, 0x2f, 0x63, 0x6f, 0x6e, 0x76, 0x32, 0x64, 0x5f, 0x31, 0x5f, 0x32, 
    0x2f, 0x42, 0x69, 0x61, 0x73, 0x41, 0x64, 0x64, 0x3b, 0x4d, 0x69, 0x6e, 
    0x69, 0x5f, 0x4d, 0x6f, 0x62, 0x69, 0x6c, 0x65, 0x4e, 0x65, 0x74, 0x5f, 
    0x31, 0x2f, 0x63, 0x6f, 0x6e, 0x76, 0x32, 0x64, 0x5f, 0x31, 0x5f, 0x32, 
    0x2f, 0x63, 0x6f, 0x6e, 0x76, 0x6f, 0x6c, 0x75, 0x74, 0x69, 0x6f, 0x6e, 
    0x3b, 0x4d, 0x69, 0x6e, 0x69, 0x5f, 0x4d, 0x6f, 0x62, 0x69, 0x6c, 0x65, 
    0x4e, 0x65, 0x74, 0x5f, 0x31, 0x2f, 0x63, 0x6f, 0x6e, 0x76, 0x32, 0x64, 
    0x5f, 0x31, 0x5f, 0x32, 0x2f, 0x53, 0x71, 0x75, 0x65, 0x65, 0x7a, 0x65, 
    0x00, 0x00, 0x00, 0x00, 0x04, 0x00, 0x00, 0x00, 0x01, 0x00, 0x00, 0x00, 
    0x0e, 0x00, 0x00, 0x00, 0x0e, 0x00, 0x00, 0x00, 0x10, 0x00, 0x00, 0x00, 
    0x7e, 0xfb, 0xff, 0xff, 0x00, 0x00, 0x00, 0x01, 0x14, 0x00, 0x00, 0x00, 
    0x24, 0x00, 0x00, 0x00, 0x24, 0x00, 0x00, 0x00, 0x0c, 0x00, 0x00, 0x00, 
    0xa4, 0x00, 0x00, 0x00, 0x04, 0x00, 0x00, 0x00, 0xff, 0xff, 0xff, 0xff, 
    0x0e, 0x00, 0x00, 0x00, 0x0e, 0x00, 0x00, 0x00, 0x08, 0x00, 0x00, 0x00, 
    0x68, 0xfb, 0xff, 0xff, 0x83, 0x00, 0x00, 0x00, 0x4d, 0x69, 0x6e, 0x69, 
    0x5f, 0x4d, 0x6f, 0x62, 0x69, 0x6c, 0x65, 0x4e, 0x65, 0x74, 0x5f, 0x31, 
    0x2f, 0x64, 0x65, 0x70, 0x74, 0x68, 0x77, 0x69, 0x73, 0x65, 0x5f, 0x63, 
    0x6f, 0x6e, 0x76, 0x32, 0x64, 0x5f, 0x31, 0x2f, 0x52, 0x65, 0x6c, 0x75, 
    0x3b, 0x4d, 0x69, 0x6e, 0x69, 0x5f, 0x4d, 0x6f, 0x62, 0x69, 0x6c, 0x65, 
    0x4e, 0x65, 0x74, 0x5f, 0x31, 0x2f, 0x64, 0x65, 0x70, 0x74, 0x68, 0x77, 
    0x69, 0x73, 0x65, 0x5f, 0x63, 0x6f, 0x6e, 0x76, 0x32, 0x64, 0x5f, 0x31, 
    0x2f, 0x42, 0x69, 0x61, 0x73, 0x41, 0x64, 0x64, 0x3b, 0x4d, 0x69, 0x6e, 
    0x69, 0x5f, 0x4d, 0x6f, 0x62, 0x69, 0x6c, 0x65, 0x4e, 0x65, 0x74, 0x5f, 
    0x31, 0x2f, 0x64, 0x65, 0x70, 0x74, 0x68, 0x77, 0x69, 0x73, 0x65, 0x5f, 
    0x63, 0x6f, 0x6e, 0x76, 0x32, 0x64, 0x5f, 0x31, 0x2f, 0x64, 0x65, 0x70, 
    0x74, 0x68, 0x77, 0x69, 0x73, 0x65, 0x3b, 0x00, 0x04, 0x00, 0x00, 0x00, 
    0x01, 0x00, 0x00, 0x00, 0x0e, 0x00, 0x00, 0x00, 0x0e, 0x00, 0x00, 0x00, 
    0x08, 0x00, 0x00, 0x00, 0x4e, 0xfc, 0xff, 0xff, 0x00, 0x00, 0x00, 0x01, 
    0x14, 0x00, 0x00, 0x00, 0x24, 0x00, 0x00, 0x00, 0x24, 0x00, 0x00, 0x00, 
    0x0b, 0x00, 0x00, 0x00, 0x8c, 0x00, 0x00, 0x00, 0x04, 0x00, 0x00, 0x00, 
    0xff, 0xff, 0xff, 0xff, 0x0e, 0x00, 0x00, 0x00, 0x0e, 0x00, 0x00, 0x00, 
    0x08, 0x00, 0x00, 0x00, 0x38, 0xfc, 0xff, 0xff, 0x68, 0x00, 0x00, 0x00, 
    0x4d, 0x69, 0x6e, 0x69, 0x5f, 0x4d, 0x6f, 0x62, 0x69, 0x6c, 0x65, 0x4e, 
    0x65, 0x74, 0x5f, 0x31, 0x2f, 0x63, 0x6f, 0x6e, 0x76, 0x32, 0x64, 0x5f, 
    0x31, 0x2f, 0x52, 0x65, 0x6c, 0x75, 0x3b, 0x4d, 0x69, 0x6e, 0x69, 0x5f, 
    0x4d, 0x6f, 0x62, 0x69, 0x6c, 0x65, 0x4e, 0x65, 0x74, 0x5f, 0x31, 0x2f, 
    0x63, 0x6f, 0x6e, 0x76, 0x32, 0x64, 0x5f, 0x31, 0x2f, 0x42, 0x69, 0x61, 
    0x73, 0x41, 0x64, 0x64, 0x3b, 0x4d, 0x69, 0x6e, 0x69, 0x5f, 0x4d, 0x6f, 
    0x62, 0x69, 0x6c, 0x65, 0x4e, 0x65, 0x74, 0x5f, 0x31, 0x2f, 0x63, 0x6f, 
    0x6e, 0x76, 0x32, 0x64, 0x5f, 0x31, 0x2f, 0x63, 0x6f, 0x6e, 0x76, 0x6f, 
    0x6c, 0x75, 0x74, 0x69, 0x6f, 0x6e, 0x3b, 0x31, 0x00, 0x00, 0x00, 0x00, 
    0x04, 0x00, 0x00, 0x00, 0x01, 0x00, 0x00, 0x00, 0x0e, 0x00, 0x00, 0x00, 
    0x0e, 0x00, 0x00, 0x00, 0x08, 0x00, 0x00, 0x00, 0x56, 0xfd, 0xff, 0xff, 
    0x00, 0x00, 0x00, 0x01, 0x10, 0x00, 0x00, 0x00, 0x10, 0x00, 0x00, 0x00, 
    0x0a, 0x00, 0x00, 0x00, 0x74, 0x00, 0x00, 0x00, 0xd8, 0xfc, 0xff, 0xff, 
    0x67, 0x00, 0x00, 0x00, 0x4d, 0x69, 0x6e, 0x69, 0x5f, 0x4d, 0x6f, 0x62, 
    0x69, 0x6c, 0x65, 0x4e, 0x65, 0x74, 0x5f, 0x31, 0x2f, 0x63, 0x6f, 0x6e, 
    0x76, 0x32, 0x64, 0x5f, 0x31, 0x2f, 0x52, 0x65, 0x6c, 0x75, 0x3b, 0x4d, 
    0x69, 0x6e, 0x69, 0x5f, 0x4d, 0x6f, 0x62, 0x69, 0x6c, 0x65, 0x4e, 0x65, 
    0x74, 0x5f, 0x31, 0x2f, 0x63, 0x6f, 0x6e, 0x76, 0x32, 0x64, 0x5f, 0x31, 
    0x2f, 0x42, 0x69, 0x61, 0x73, 0x41, 0x64, 0x64, 0x3b, 0x4d, 0x69, 0x6e, 
    0x69, 0x5f, 0x4d, 0x6f, 0x62, 0x69, 0x6c, 0x65, 0x4e, 0x65, 0x74, 0x5f, 
    0x31, 0x2f, 0x63, 0x6f, 0x6e, 0x76, 0x32, 0x64, 0x5f, 0x31, 0x2f, 0x63, 
    0x6f, 0x6e, 0x76, 0x6f, 0x6c, 0x75, 0x74, 0x69, 0x6f, 0x6e, 0x3b, 0x00, 
    0x01, 0x00, 0x00, 0x00, 0x08, 0x00, 0x00, 0x00, 0xe6, 0xfd, 0xff, 0xff, 
    0x00, 0x00, 0x00, 0x01, 0x10, 0x00, 0x00, 0x00, 0x10, 0x00, 0x00, 0x00, 
    0x09, 0x00, 0x00, 0x00, 0x34, 0x00, 0x00, 0x00, 0x68, 0xfd, 0xff, 0xff, 
    0x25, 0x00, 0x00, 0x00, 0x4d, 0x69, 0x6e, 0x69, 0x5f, 0x4d, 0x6f, 0x62, 
    0x69, 0x6c, 0x65, 0x4e, 0x65, 0x74, 0x5f, 0x31, 0x2f, 0x63, 0x6f, 0x6e, 
    0x76, 0x32, 0x64, 0x5f, 0x31, 0x2f, 0x63, 0x6f, 0x6e, 0x76, 0x6f, 0x6c, 
    0x75, 0x74, 0x69, 0x6f, 0x6e, 0x00, 0x00, 0x00, 0x04, 0x00, 0x00, 0x00, 
    0x08, 0x00, 0x00, 0x00, 0x03, 0x00, 0x00, 0x00, 0x03, 0x00, 0x00, 0x00, 
    0x01, 0x00, 0x00, 0x00, 0x00, 0x00, 0x16, 0x00, 0x1c, 0x00, 0x18, 0x00, 
    0x17, 0x00, 0x10, 0x00, 0x0c, 0x00, 0x08, 0x00, 0x00, 0x00, 0x00, 0x00, 
    0x00, 0x00, 0x07, 0x00, 0x16, 0x00, 0x00, 0x00, 0x00, 0x00, 0x00, 0x01, 
    0x14, 0x00, 0x00, 0x00, 0x14, 0x00, 0x00, 0x00, 0x08, 0x00, 0x00, 0x00, 
    0x00, 0x00, 0x00, 0x02, 0x50, 0x00, 0x00, 0x00, 0xe0, 0xfd, 0xff, 0xff, 
    0x42, 0x00, 0x00, 0x00, 0x4d, 0x69, 0x6e, 0x69, 0x5f, 0x4d, 0x6f, 0x62, 
    0x69, 0x6c, 0x65, 0x4e, 0x65, 0x74, 0x5f, 0x31, 0x2f, 0x67, 0x6c, 0x6f, 
    0x62, 0x61, 0x6c, 0x5f, 0x61, 0x76, 0x65, 0x72, 0x61, 0x67, 0x65, 0x5f, 
    0x70, 0x6f, 0x6f, 0x6c, 0x69, 0x6e, 0x67, 0x32, 0x64, 0x5f, 0x31, 0x2f, 
    0x4d, 0x65, 0x61, 0x6e, 0x2f, 0x72, 0x65, 0x64, 0x75, 0x63, 0x74, 0x69, 
    0x6f, 0x6e, 0x5f, 0x69, 0x6e, 0x64, 0x69, 0x63, 0x65, 0x73, 0x00, 0x00, 
    0x01, 0x00, 0x00, 0x00, 0x02, 0x00, 0x00, 0x00, 0xca, 0xfe, 0xff, 0xff, 
    0x00, 0x00, 0x00, 0x01, 0x10, 0x00, 0x00, 0x00, 0x10, 0x00, 0x00, 0x00, 
    0x07, 0x00, 0x00, 0x00, 0x1c, 0x00, 0x00, 0x00, 0x4c, 0xfe, 0xff, 0xff, 
    0x0f, 0x00, 0x00, 0x00, 0x61, 0x72, 0x69, 0x74, 0x68, 0x2e, 0x63, 0x6f, 
    0x6e, 0x73, 0x74, 0x61, 0x6e, 0x74, 0x35, 0x00, 0x01, 0x00, 0x00, 0x00, 
    0x0a, 0x00, 0x00, 0x00, 0x02, 0xff, 0xff, 0xff, 0x00, 0x00, 0x00, 0x01, 
    0x10, 0x00, 0x00, 0x00, 0x10, 0x00, 0x00, 0x00, 0x06, 0x00, 0x00, 0x00, 
    0x1c, 0x00, 0x00, 0x00, 0x84, 0xfe, 0xff, 0xff, 0x0f, 0x00, 0x00, 0x00, 
    0x61, 0x72, 0x69, 0x74, 0x68, 0x2e, 0x63, 0x6f, 0x6e, 0x73, 0x74, 0x61, 
    0x6e, 0x74, 0x34, 0x00, 0x02, 0x00, 0x00, 0x00, 0x0a, 0x00, 0x00, 0x00, 
    0x10, 0x00, 0x00, 0x00, 0x3e, 0xff, 0xff, 0xff, 0x00, 0x00, 0x00, 0x01, 
    0x10, 0x00, 0x00, 0x00, 0x10, 0x00, 0x00, 0x00, 0x05, 0x00, 0x00, 0x00, 
    0x1c, 0x00, 0x00, 0x00, 0xc0, 0xfe, 0xff, 0xff, 0x0f, 0x00, 0x00, 0x00, 
    0x61, 0x72, 0x69, 0x74, 0x68, 0x2e, 0x63, 0x6f, 0x6e, 0x73, 0x74, 0x61, 
    0x6e, 0x74, 0x33, 0x00, 0x04, 0x00, 0x00, 0x00, 0x01, 0x00, 0x00, 0x00, 
    0x03, 0x00, 0x00, 0x00, 0x03, 0x00, 0x00, 0x00, 0x08, 0x00, 0x00, 0x00, 
    0x82, 0xff, 0xff, 0xff, 0x00, 0x00, 0x00, 0x01, 0x10, 0x00, 0x00, 0x00, 
    0x10, 0x00, 0x00, 0x00, 0x04, 0x00, 0x00, 0x00, 0x1c, 0x00, 0x00, 0x00, 
    0x04, 0xff, 0xff, 0xff, 0x0f, 0x00, 0x00, 0x00, 0x61, 0x72, 0x69, 0x74, 
    0x68, 0x2e, 0x63, 0x6f, 0x6e, 0x73, 0x74, 0x61, 0x6e, 0x74, 0x32, 0x00, 
    0x04, 0x00, 0x00, 0x00, 0x10, 0x00, 0x00, 0x00, 0x01, 0x00, 0x00, 0x00, 
    0x01, 0x00, 0x00, 0x00, 0x08, 0x00, 0x00, 0x00, 0xc6, 0xff, 0xff, 0xff, 
    0x00, 0x00, 0x00, 0x01, 0x10, 0x00, 0x00, 0x00, 0x10, 0x00, 0x00, 0x00, 
    0x03, 0x00, 0x00, 0x00, 0x1c, 0x00, 0x00, 0x00, 0x48, 0xff, 0xff, 0xff, 
    0x0f, 0x00, 0x00, 0x00, 0x61, 0x72, 0x69, 0x74, 0x68, 0x2e, 0x63, 0x6f, 
    0x6e, 0x73, 0x74, 0x61, 0x6e, 0x74, 0x31, 0x00, 0x01, 0x00, 0x00, 0x00, 
    0x08, 0x00, 0x00, 0x00, 0x00, 0x00, 0x16, 0x00, 0x18, 0x00, 0x14, 0x00, 
    0x00, 0x00, 0x10, 0x00, 0x0c, 0x00, 0x08, 0x00, 0x00, 0x00, 0x00, 0x00, 
    0x00, 0x00, 0x07, 0x00, 0x16, 0x00, 0x00, 0x00, 0x00, 0x00, 0x00, 0x01, 
    0x10, 0x00, 0x00, 0x00, 0x10, 0x00, 0x00, 0x00, 0x02, 0x00, 0x00, 0x00, 
    0x1c, 0x00, 0x00, 0x00, 0x98, 0xff, 0xff, 0xff, 0x0e, 0x00, 0x00, 0x00, 
    0x61, 0x72, 0x69, 0x74, 0x68, 0x2e, 0x63, 0x6f, 0x6e, 0x73, 0x74, 0x61, 
    0x6e, 0x74, 0x00, 0x00, 0x01, 0x00, 0x00, 0x00, 0x10, 0x00, 0x00, 0x00, 
    0x00, 0x00, 0x16, 0x00, 0x1c, 0x00, 0x18, 0x00, 0x00, 0x00, 0x14, 0x00, 
    0x10, 0x00, 0x0c, 0x00, 0x00, 0x00, 0x00, 0x00, 0x08, 0x00, 0x07, 0x00, 
    0x16, 0x00, 0x00, 0x00, 0x00, 0x00, 0x00, 0x01, 0x14, 0x00, 0x00, 0x00, 
    0x28, 0x00, 0x00, 0x00, 0x28, 0x00, 0x00, 0x00, 0x01, 0x00, 0x00, 0x00, 
    0x44, 0x00, 0x00, 0x00, 0x04, 0x00, 0x00, 0x00, 0xff, 0xff, 0xff, 0xff, 
    0x1c, 0x00, 0x00, 0x00, 0x1c, 0x00, 0x00, 0x00, 0x01, 0x00, 0x00, 0x00, 
    0x04, 0x00, 0x04, 0x00, 0x04, 0x00, 0x00, 0x00, 0x1e, 0x00, 0x00, 0x00, 
    0x73, 0x65, 0x72, 0x76, 0x69, 0x6e, 0x67, 0x5f, 0x64, 0x65, 0x66, 0x61, 
    0x75, 0x6c, 0x74, 0x5f, 0x6b, 0x65, 0x72, 0x61, 0x73, 0x5f, 0x74, 0x65, 
    0x6e, 0x73, 0x6f, 0x72, 0x3a, 0x30, 0x00, 0x00, 0x04, 0x00, 0x00, 0x00, 
    0x01, 0x00, 0x00, 0x00, 0x1c, 0x00, 0x00, 0x00, 0x1c, 0x00, 0x00, 0x00, 
    0x01, 0x00, 0x00, 0x00, 0x05, 0x00, 0x00, 0x00, 0x50, 0x00, 0x00, 0x00, 
    0x34, 0x00, 0x00, 0x00, 0x24, 0x00, 0x00, 0x00, 0x14, 0x00, 0x00, 0x00, 
    0x04, 0x00, 0x00, 0x00, 0xd0, 0xff, 0xff, 0xff, 0x19, 0x00, 0x00, 0x00, 
    0x00, 0x00, 0x00, 0x19, 0xdc, 0xff, 0xff, 0xff, 0x09, 0x00, 0x00, 0x00, 
    0x00, 0x00, 0x00, 0x09, 0xe8, 0xff, 0xff, 0xff, 0x28, 0x00, 0x00, 0x00, 
    0x00, 0x00, 0x00, 0x28, 0xf4, 0xff, 0xff, 0xff, 0x04, 0x00, 0x00, 0x00, 
    0x00, 0x00, 0x00, 0x04, 0x0c, 0x00, 0x0c, 0x00, 0x0b, 0x00, 0x00, 0x00, 
    0x00, 0x00, 0x04, 0x00, 0x0c, 0x00, 0x00, 0x00, 0x03, 0x00, 0x00, 0x00, 
    0x00, 0x00, 0x00, 0x03, 
};
const unsigned int mobilenet_data_len = 5104;
